// conv2 weights, shape=(16,8,3,3),  order=(oc,ic,kh,kw)
// 1152 int8 values, two's complement, one per line
17
31
29
04
14
0a
21
18
1a
05
1c
1c
17
12
ff
fe
0b
08
03
05
1e
15
07
0b
07
13
08
03
08
0d
02
09
f8
19
05
f5
21
29
1b
34
2c
23
22
27
10
f4
f0
f7
03
fd
07
0c
ef
ff
2f
21
25
37
34
38
2c
24
2d
0e
f0
04
30
14
13
1c
07
11
11
2a
1d
00
24
02
f9
f9
00
14
0e
10
00
10
00
f3
ee
04
15
00
19
17
fe
19
15
0c
1c
03
1d
12
17
12
18
f5
f9
ff
de
e2
f8
f1
c5
e6
9d
b4
a4
e8
d2
e0
f7
f2
e0
f3
e7
fc
e5
f1
df
db
dc
cc
c6
bf
cd
f3
dd
d8
f8
e4
e7
fc
e4
dd
0f
20
09
1a
1a
08
20
20
08
05
00
fc
0a
00
02
03
04
0f
00
fe
13
eb
f8
ed
f2
ee
ef
01
10
08
f6
f7
eb
fc
ee
e9
11
2a
21
29
11
09
09
0b
15
ff
f8
ef
f9
01
fc
ed
05
f2
11
20
0d
14
2c
29
1b
2b
1e
1a
2c
15
11
35
25
04
12
0a
0f
ff
0d
07
07
04
0b
12
03
e6
ff
04
0e
0a
fb
03
08
f7
12
12
07
06
0d
0f
0d
10
05
04
0a
11
0c
fb
00
06
f5
f2
0d
12
ee
1a
00
15
0e
f4
eb
12
14
1d
0f
1c
1e
2e
0f
26
ff
0f
f9
21
17
16
00
05
f0
13
f6
fb
0b
0c
0c
1c
08
f4
11
1a
1a
28
12
12
10
1b
2c
29
30
30
20
11
19
13
08
13
04
05
f6
0d
0c
02
09
09
01
16
16
0a
f9
0a
0e
fd
ea
07
31
1d
32
3a
22
37
12
0e
26
eb
d5
e7
f2
fc
02
20
10
05
2a
33
33
23
24
21
1c
1f
20
f7
e1
eb
00
f8
03
08
09
02
06
07
02
22
15
1e
2c
30
17
f1
19
14
27
21
13
1c
01
07
03
06
f7
00
10
fd
16
21
19
f8
ef
00
0e
0a
0d
16
05
fb
14
29
13
3f
16
26
1d
22
1c
0e
fb
05
fc
f5
fc
18
16
0f
2c
29
13
3f
44
48
20
24
27
22
14
0f
25
12
fb
29
0d
1f
1b
22
1b
17
10
fd
15
06
03
15
1f
11
fc
fd
0a
ed
ed
e9
05
04
f3
ec
e5
f8
fc
f5
fc
05
f8
01
04
f5
f6
06
f2
f8
13
11
fa
0f
12
04
11
0d
07
f7
1a
00
f6
02
ff
19
0f
19
38
3f
41
29
36
2a
06
09
09
04
08
f8
10
33
19
06
1f
21
f2
f2
f7
0a
1a
11
05
00
f3
19
19
19
05
2d
26
1f
04
04
e7
f3
e7
e0
e5
e5
d6
dd
df
07
28
13
1f
29
21
1d
28
16
ef
16
fe
ea
e4
d9
21
ff
fb
fa
12
0a
09
f1
12
18
fb
04
e1
f3
c7
ee
fe
e0
f7
01
e7
15
fe
f7
fd
f7
f6
05
e5
fe
e9
fc
d7
05
08
00
fe
fd
f8
13
17
28
f5
15
01
e9
f4
fe
0d
09
f6
17
1e
09
2f
16
17
f0
0f
17
f6
f7
15
fc
08
02
ce
b8
de
ab
ad
b6
b1
8d
a8
ed
c9
dd
f5
ed
e7
2b
12
15
d5
ca
cd
b2
af
af
c7
a4
b5
f4
e7
d3
e5
ce
c1
f3
f1
d4
fd
f3
ed
21
14
00
ea
0e
ea
02
1d
08
03
13
1c
ef
ff
02
08
f6
04
0c
09
14
23
27
1b
fd
f6
00
e7
e5
f1
fa
e3
01
e0
b0
d9
cb
99
bd
de
b0
d9
f2
eb
ee
1b
03
20
0e
15
22
f1
e6
ca
f7
e2
de
fc
ed
e5
c8
dc
d0
c6
bf
c8
f8
12
05
14
0d
ff
0e
01
15
18
f2
f6
fb
e8
f4
0e
fd
10
0c
05
14
17
23
27
12
1c
11
05
05
09
06
f6
00
0b
f0
f7
f6
e6
fc
11
16
ff
f3
e4
e4
11
13
12
06
25
10
f9
f9
f0
ed
d2
d7
2b
09
35
0f
0a
00
0d
22
06
3d
3f
36
03
eb
ed
0a
f8
f0
d1
ef
df
1a
27
19
ec
00
f1
f9
0b
24
14
17
1a
f2
03
0f
f6
0a
01
20
10
17
0c
1a
19
02
19
1f
09
0a
13
ef
ea
f7
cf
b2
f0
b7
a9
cf
c0
9b
a7
dc
e4
e7
06
ec
e6
28
27
03
f0
d3
f3
c9
bf
b2
db
db
ea
f6
e9
d8
e5
cd
d8
df
dc
de
0c
18
fd
28
33
23
0d
17
f3
24
50
44
08
0d
11
d8
d5
eb
03
e6
e4
16
1e
03
2c
2f
1e
25
49
3f
f5
0e
1c
ef
e4
07
fd
ef
20
00
fd
03
cb
c7
dc
e5
da
ec
00
fa
fe
11
14
f8
0d
00
04
e9
fc
e2
db
cd
d1
da
e0
ee
ff
ff
09
ed
0c
00
24
1a
04
10
16
f1
00
06
fe
02
f9
0a
fb
00
03
f4
e9
e8
f8
00
f4
f6
ec
02
fb
11
02
fd
06
07
13
ff
f3
0d
fb
fe
06
04
01
19
19
29
24
24
19
07
08
10
ff
fc
04
fb
0f
14
14
16
1b
f7
1b
ff
f0
05
0b
02
08
f9
1b
16
21
2a
30
1e
11
0f
03
20
15
14
05
03
03
fc
0c
0b
12
0d
1d
1c
03
1c
02
f9
0e
fd
f7
f1
ea
f6
e7
f2
0d
fb
ea
f2
ef
f3
f8
f5
db
e2
eb
04
f1
ef
e9
ff
ee
1c
15
02
11
0f
11
f4
02
fd
0b
17
1b
15
23
1a
2c
1e
22
d0
f0
ee
07
04
f1
f6
f1
f1
00
0a
08
17
0b
02
11
06
fe
f0
e7
01
e4
df
ed
f4
f6
f5
fd
f6
01
04
12
f9
fe
f7
05
19
19
07
09
0b
0a
02
fa
ea
22
1e
2d
10
1a
24
14
04
03
fd
f5
0e
0c
f8
07
04
10
07
f5
fb
ff
02
f6
02
08
15
06
2f
32
31
21
2d
25
17
2a
2d
