// conv3 weights, shape=(16,16,3,3), order=(oc,ic,kh,kw)
// 2304 int8 values, two's complement, one per line
16
02
f8
10
1d
ff
08
16
17
95
c1
bf
ba
bd
ce
d9
cb
db
02
07
f7
fb
f9
f5
fe
fa
f5
0b
04
14
0b
13
fe
01
0a
fd
12
02
02
0f
00
f8
04
09
f2
0d
fe
fb
0b
07
02
fb
04
04
07
00
02
e8
d7
d3
02
fb
ec
0d
14
05
0f
0c
f5
00
0b
0b
f9
f0
0f
04
00
05
16
0f
11
fb
05
11
07
0c
f9
f0
f4
f3
09
12
12
0e
0a
11
03
05
05
0d
0b
19
0d
1b
17
05
00
00
11
f8
04
03
0f
0a
06
12
0c
be
e4
d4
b6
c7
c9
dc
c8
da
e7
0b
06
e7
ed
df
f9
f6
ed
ed
dd
03
d4
de
f0
e9
ea
f4
00
02
01
f8
fe
fa
01
fd
ff
fa
f7
fe
00
fc
fe
f9
01
fc
fe
fc
00
04
03
ff
03
fa
f9
fd
01
f8
fb
fe
f8
fe
ff
00
fc
fb
fa
ff
03
fc
f9
f9
fb
f6
f9
02
f9
fd
fb
f8
fd
ff
f9
fd
fe
fb
02
02
04
fa
03
f7
fc
fd
fa
01
fb
fd
fa
f6
fe
fa
01
03
05
fe
02
ff
03
05
00
fa
f9
fd
04
00
03
00
fd
fd
02
01
02
f9
fe
fe
01
00
03
f9
f9
03
fb
f8
00
fc
03
fc
fe
f9
fc
fd
fd
fe
fe
02
02
ff
f9
fa
ff
fd
fe
01
ff
fe
05
04
fe
01
03
02
fb
fc
fc
f9
04
ff
01
00
fd
f9
fb
02
ff
f6
f5
f8
f6
01
f9
04
fc
03
0f
20
2f
13
26
0b
02
fb
fb
fa
f2
ec
f6
f2
f4
f6
fa
ef
f8
e8
eb
e6
e6
ec
04
09
fc
f3
09
fb
fb
06
0a
09
06
0e
08
03
04
0e
12
0a
ff
09
0c
fa
04
15
01
0b
10
f7
f9
f9
f6
e6
f1
fc
00
fe
08
0c
0c
00
08
01
ff
04
01
10
fe
fb
00
f8
eb
0e
07
fc
09
09
06
06
f2
ff
1b
1d
11
06
03
fc
f7
fc
f4
f2
ff
f3
0b
fc
fb
e8
fd
f2
fe
0a
f7
05
fe
f8
e8
ea
08
18
13
13
0e
ff
f9
0e
f3
f5
f4
ed
eb
10
0f
04
10
16
0a
0e
0f
16
f9
02
fb
fa
fd
fa
fb
00
fa
00
01
ff
00
fa
01
04
00
02
f8
fd
ff
fb
02
fc
fd
fa
00
fa
fc
00
02
ff
fc
fb
01
ff
02
00
02
fb
04
fd
fe
ff
fe
ff
02
fa
ff
f9
fe
02
01
02
02
ff
01
fd
04
02
fc
04
ff
ff
fc
fe
00
fd
f9
fb
fe
02
01
fa
fd
fe
fc
fe
fd
02
fb
fe
fa
fc
02
fb
fd
03
ff
fb
fc
fd
fe
01
fe
02
fc
fc
00
02
03
ff
fe
fb
02
fb
fe
f9
f6
fe
fb
01
01
01
ff
fb
fe
00
ff
fe
00
ff
fa
00
fb
00
fd
fe
fd
03
fc
01
01
02
00
01
02
ff
00
fa
fd
fe
ff
fc
f8
f8
06
02
ec
05
f2
fa
01
18
3f
fc
16
34
f5
1d
1e
e6
04
f2
f9
21
05
17
29
29
15
05
f2
f2
f8
f0
fd
f7
f1
10
fc
f8
05
00
f4
fe
e4
f8
e6
0a
07
05
08
00
0c
09
fb
0d
11
21
02
f9
19
0e
0d
f9
19
0b
01
f4
01
fc
03
f1
f0
f6
fc
05
13
ee
fb
fb
f8
02
fa
00
fa
05
fb
06
f6
ff
01
04
04
f6
03
ed
ea
01
f2
06
ea
fb
ff
24
e3
f7
e5
db
b1
cc
0b
f7
00
f0
e5
f9
06
f7
fc
14
25
e1
f7
12
f0
06
ed
f0
0c
ec
fd
22
14
01
27
0a
15
09
24
fb
e5
14
ef
0b
f5
ef
f7
fa
01
fe
fd
fe
f8
05
04
1f
24
27
2b
23
1b
36
1f
0d
0c
03
13
08
01
0e
04
1a
1a
02
fb
ff
fe
08
02
05
0e
06
04
07
04
0d
fa
fb
0b
fb
08
0f
14
0f
08
11
01
f8
00
ff
18
07
10
16
0c
09
16
1c
0d
04
fc
10
f5
0f
02
f3
01
0d
ee
00
e3
f1
e7
f5
e9
d8
db
f4
ed
f8
06
fd
11
0e
09
11
ee
f5
ea
f3
f3
f4
f8
01
fe
03
f8
f4
08
ea
f8
17
07
1b
fb
05
fb
09
fe
02
0d
06
06
10
0c
30
28
1c
1e
29
29
0e
0f
0a
1b
0e
11
15
03
26
13
1b
0f
13
18
08
13
11
1f
0c
fe
02
00
fc
fa
fb
02
fe
fe
02
fd
ff
fd
01
03
01
03
fb
fc
ff
fa
00
fb
00
03
fa
03
00
fa
03
f9
fa
fb
fd
ff
fc
fb
ff
04
04
00
00
01
fb
02
f8
fb
fc
01
fd
fb
ff
f9
fc
02
fe
ff
01
fb
fe
04
ff
fd
02
01
fd
fb
fd
01
fd
03
fb
fd
04
fe
00
ff
fe
fc
01
fe
fe
01
ff
ff
fa
fd
fc
00
fc
01
ff
fa
02
fa
ff
fa
f9
fe
fd
03
fb
04
01
04
fc
fc
fc
05
fe
00
fe
ff
fa
03
fb
04
fc
fc
fc
02
ff
fb
03
03
00
05
01
fe
fd
fb
fb
ff
01
fc
fd
fe
fa
fd
02
01
02
fd
fe
01
fc
fb
02
fe
fa
02
fe
00
fb
01
03
fe
fc
04
00
ff
ff
fe
01
fd
fa
00
ff
02
ff
ff
fd
ff
fa
fb
01
fb
fd
ff
fe
02
fe
ff
ff
00
01
02
fa
fc
f9
fc
01
f8
f9
01
fa
01
ff
ff
03
fa
02
00
fa
ff
fd
fc
fd
fb
02
02
fd
f9
fd
fe
01
fe
ff
ff
fc
fc
fb
ff
01
ff
03
fd
fc
00
fe
ff
04
ff
04
fe
fc
02
fb
fe
ff
02
fa
00
fc
03
ff
02
03
fe
fe
04
fa
fc
fe
fc
00
04
fd
fa
fc
03
fd
fd
03
ff
fb
05
03
03
00
fc
fc
03
ff
ff
fb
fd
02
00
fd
f9
01
fd
f9
03
00
fa
fa
0e
02
10
0d
03
01
1a
0f
fa
c0
f9
ab
cd
f6
ca
a4
e2
c4
15
09
11
0c
f8
01
1e
0d
fb
10
06
14
f7
ec
03
10
fd
fb
fb
fc
fd
f7
f2
ec
11
00
e7
0a
06
0f
f5
f8
02
10
fc
fb
fe
12
f1
0a
0b
03
f8
09
00
f1
0a
fa
0c
0b
04
0e
fa
fa
0f
13
12
fe
f7
f0
0c
0a
08
0d
13
04
f0
f6
ff
02
fe
04
00
05
09
1a
10
1b
f2
f0
f2
04
f5
e4
e2
dc
da
ea
f2
e4
01
0e
0c
ed
f4
f2
19
0f
ff
86
e1
a1
9b
c5
88
b7
c7
a5
f9
02
f5
f2
06
08
f6
ee
f1
f0
e2
f5
c8
db
ea
d8
d9
ea
0e
00
00
1f
fa
e2
1d
ea
cd
e7
fa
2a
af
10
3d
97
0b
53
42
13
e4
24
ff
dd
1f
fd
e2
14
ff
08
18
f4
d5
14
fb
d0
ef
cb
0a
16
e2
d2
33
15
fc
00
fa
08
0a
f9
ee
1b
05
f0
11
00
0d
fa
0c
05
df
04
19
02
ef
e4
25
fd
e0
2f
0d
f5
dd
20
33
e5
09
1d
dd
ff
1d
ef
13
f0
05
fb
e2
02
f3
ff
02
f3
05
f6
00
1b
f7
f7
03
12
11
14
1e
e9
ce
24
f3
e9
0e
ea
00
0c
ef
e2
19
1b
ed
17
e5
18
09
08
ff
d5
17
f4
19
02
06
10
07
ea
14
13
0e
f4
f5
2d
dc
07
20
b8
fb
07
f4
e1
f9
f6
fe
06
ee
07
12
ff
0e
fb
0e
17
16
2b
fb
25
04
05
16
10
0b
1b
f2
2d
1a
04
11
13
ef
e7
ee
f1
f6
05
e3
04
f7
d9
fb
e9
ff
e7
eb
ff
0f
fe
f8
00
05
05
0a
1a
fd
13
15
fc
19
01
20
24
0b
01
f4
0a
fe
00
01
0d
ef
f6
29
0b
f3
f4
f1
e1
05
f1
11
f0
f2
eb
13
1d
f6
0e
06
01
0d
05
f1
01
02
e9
de
fb
fd
d5
f2
a9
f5
eb
d5
ea
f3
fd
01
17
19
e4
e3
f6
fa
fc
04
c4
10
f1
e9
f7
0b
2b
fb
1f
f1
02
0a
0c
23
10
12
05
15
ec
f6
e0
dd
f1
f0
17
04
1c
0a
ee
f7
0c
fb
f6
f7
08
e9
f5
1e
05
ee
fc
ff
e6
fb
f3
12
f4
df
1e
13
fa
0b
0a
e7
08
00
08
06
fb
fe
0b
f6
f4
ca
04
05
e7
e5
0b
02
ef
ec
16
00
fa
17
f5
0a
14
05
07
f9
08
f2
10
11
07
0f
fd
06
fe
e4
ec
1d
fd
ea
08
fc
f6
0d
1f
08
08
04
0d
1a
f4
26
0b
1b
f5
fe
1d
e4
fb
f0
ff
fa
ef
11
f5
15
1d
f2
12
09
db
22
f8
fe
10
e4
eb
fe
fa
04
14
04
03
e7
12
13
f1
fe
f9
23
e7
f5
17
de
e7
e7
fe
12
f6
09
04
ee
da
fc
04
e2
07
1f
f4
10
07
11
fd
dc
11
0a
ed
f7
08
ec
f9
f6
f1
ff
f0
4f
3d
e5
23
25
df
29
27
11
e9
05
0f
0b
1e
03
03
09
0c
05
06
0a
ef
fe
fb
ee
f6
df
20
fc
f3
fb
ea
0c
dc
dd
08
01
f2
08
f5
ff
05
03
0d
fb
0b
11
07
10
1a
10
1e
1b
05
e9
f1
0f
eb
06
0b
d7
fc
14
15
eb
0c
f6
ce
f8
fb
f3
12
f3
e7
0c
f3
e2
0f
0a
19
de
ff
e6
ff
09
e8
f4
02
f6
14
0f
d5
07
bc
af
01
f1
f0
0d
03
01
0c
e7
f4
fd
f0
fc
f6
1e
1b
ce
f3
28
ed
e7
21
00
17
20
ff
f9
27
15
23
21
f4
14
0c
c9
f1
f1
d3
09
20
0e
fe
fe
0e
dd
ee
09
ea
fc
f2
20
36
0b
5a
3c
ea
38
0f
0a
e6
e2
2f
0a
0f
20
13
17
08
ef
e6
1b
f4
fc
0e
dd
01
01
03
0b
b8
07
11
f0
e9
eb
17
0f
09
07
fb
ea
08
f5
f0
13
08
1b
fb
f5
0b
ff
04
15
0c
f5
01
0d
fe
ee
04
e3
e0
d8
19
ff
0c
09
e3
f0
05
bb
f5
0e
d7
fa
fd
ea
f5
0e
fc
f9
03
e6
c5
da
dd
e8
0b
f8
1b
0c
ff
ff
de
bf
ed
eb
c1
fb
f2
08
15
fa
03
04
ca
e7
13
05
25
fc
02
eb
d0
09
f6
15
01
08
29
0f
10
06
28
1e
08
23
25
fc
27
16
e6
f9
e0
fb
e4
f8
fe
f4
f9
00
0b
f1
16
49
1d
29
3e
15
00
14
f4
24
f9
fe
2c
23
02
0d
fb
0a
1b
0a
0b
ef
f1
f9
f7
eb
03
cd
00
f4
f3
f0
0d
f8
e7
f7
0b
e4
f3
03
fe
0b
ff
01
fb
0d
13
05
27
1d
0f
2d
12
23
fb
e6
ed
18
05
fd
0b
01
ff
f7
00
eb
f6
fb
05
03
fe
05
1b
fc
0b
f0
eb
06
0f
ef
0d
f3
f2
fc
e3
e8
ef
09
fb
02
0d
eb
f6
e1
e6
e4
f5
e5
ff
07
fb
07
f6
d7
f8
15
06
ed
19
32
f6
12
17
fe
09
f9
eb
2f
24
0d
25
13
0b
12
f5
0f
23
1d
03
f6
f6
07
07
0b
f8
ff
00
03
02
ff
04
fd
01
02
fb
fe
03
ff
fd
06
ff
04
01
fe
04
02
00
fe
05
fc
05
ff
ff
03
fb
f8
fa
02
01
fa
fb
01
01
00
fe
fb
02
fb
f8
fb
00
00
00
fc
fd
fc
fd
fa
00
00
fb
fb
ff
fd
fb
ff
01
fb
fe
fc
fc
ff
fc
ff
fc
00
04
04
fb
00
fb
01
f9
f9
fa
fb
01
fc
00
fd
fe
fc
f9
fa
01
fb
fe
01
fb
fe
fc
f9
01
fc
05
fc
ff
fa
ff
fe
fb
fd
fe
fb
fe
02
01
02
00
fa
fa
fd
00
00
06
ff
ff
ff
fd
ff
03
fd
fb
fc
01
fc
fb
fb
04
ff
fd
fa
04
fd
01
00
00
02
ff
