// conv3 weights, shape=(16,16,3,3), order=(oc,ic,kh,kw)
// 2304 int8 values, two's complement, one per line
f9
e9
f3
f1
41
d3
fa
13
07
cc
c8
07
e3
07
fa
33
42
29
f2
07
f6
ec
d6
dd
f8
fa
02
09
0f
16
03
31
d6
01
17
01
1c
f5
fe
12
11
e7
0b
13
f0
18
00
0b
0d
27
07
e6
10
fc
35
41
3c
d5
c5
b5
07
1f
22
13
19
00
fa
2b
bf
e1
18
f6
03
f0
00
f7
0a
01
16
11
00
04
f2
fe
2a
2f
fb
0c
28
f3
f9
00
db
04
eb
19
06
04
25
f4
fa
21
f9
2c
09
22
11
11
f4
c4
09
2a
42
2b
37
46
2b
fb
f6
f2
c8
f4
bb
29
1f
0e
06
0f
04
e5
df
c7
39
20
16
1d
2f
41
af
c8
a4
1d
24
28
0a
12
0f
ee
03
f7
07
fa
01
ef
ea
05
02
ff
0c
f4
05
f1
01
fc
0e
0f
10
01
0a
e8
f1
01
fe
ee
f3
f3
e8
fe
0a
06
f4
ea
ec
ff
0e
f6
f2
f3
fd
ea
ec
13
f3
fa
f9
ea
fa
06
f8
ff
fe
ea
0e
0f
0c
f7
0a
eb
f9
f9
f5
07
f3
fb
f7
ea
f9
eb
09
08
11
f6
fe
03
13
11
f2
eb
eb
f2
0f
04
12
0d
fd
f0
13
0e
06
f1
0d
fe
0b
07
0b
eb
f3
0b
f9
ec
11
fe
0e
eb
06
f5
f3
f8
f4
08
f8
0f
03
fb
f4
ee
f9
ed
f9
fe
ff
f6
0f
0c
fb
f8
0f
13
ed
fa
fc
f6
14
fe
10
ff
fb
f6
f7
07
07
fd
13
ef
06
11
f9
0b
fd
eb
f2
05
f0
03
12
05
fd
03
f4
ed
ef
ed
04
03
f6
e9
0a
f1
fc
ec
f2
06
ea
f2
0e
f3
f5
f9
07
f1
00
07
fc
01
ed
07
06
fb
ed
07
0c
f9
0b
06
f6
fd
13
ff
ef
fd
09
f6
f3
0f
0a
fa
00
fc
03
00
f1
02
ff
ff
f6
03
ec
05
0a
fc
ed
00
fe
eb
ef
12
0d
09
0c
06
09
0c
f9
fb
0d
fd
f0
ec
0a
0f
0f
02
0d
ea
ef
e9
0c
f6
ee
05
f5
ed
09
02
f0
ec
0a
13
02
f5
0a
02
ed
f1
05
0d
f9
08
f3
14
08
fc
04
06
f4
fe
05
f9
12
f6
ed
f5
ea
0f
f4
ef
fb
ef
f3
08
ee
05
0c
fb
05
ee
0b
10
00
0e
e8
fb
02
ea
08
f5
f5
ed
06
ed
f8
06
0d
02
f5
f4
09
01
0f
06
0f
ed
0f
f4
f8
fe
fa
01
10
f0
04
ec
00
0f
0b
0f
09
fc
03
f5
10
08
ee
10
fd
fd
f8
f8
ff
f3
ea
f3
fa
0e
0c
ef
fc
f7
f1
f9
f6
09
f2
00
f0
f6
0d
f2
fb
11
04
f2
f0
f6
f6
06
f8
0f
f1
f6
05
0e
12
01
fe
f4
0a
f1
f8
ec
df
fd
f4
0b
0b
05
03
f4
00
08
04
fe
00
fd
ed
01
ec
06
f3
f9
f6
11
f1
0b
0b
0f
05
09
0e
02
05
ed
f9
00
01
f7
f5
07
23
13
f3
06
f0
f3
e4
43
38
38
41
34
32
13
ed
f6
39
43
36
2d
46
3b
5c
41
27
04
17
16
06
04
07
14
07
0e
f5
1c
22
04
e9
e2
02
06
ff
0e
17
0b
e9
01
f6
f9
06
e6
ec
f0
02
3a
41
33
27
10
18
ed
f7
ff
fd
17
0a
04
f3
f2
01
09
1e
01
05
02
f9
01
ff
f6
00
07
e2
0a
f7
eb
0d
ec
03
0d
f7
0d
0b
15
f3
ef
fb
1e
12
2d
ee
f9
f1
07
ed
e5
32
3a
4f
dc
ea
ed
f4
e5
e6
0d
f0
0e
29
3a
31
35
31
0a
42
38
42
52
4d
3f
5a
38
1a
19
17
14
fa
2b
10
0e
0e
04
fc
f7
eb
f2
01
e9
e6
e4
ff
19
d8
09
12
05
2c
51
3f
44
55
3e
4e
34
01
1c
2d
19
2a
19
07
01
06
1c
0d
fe
00
07
19
fa
fa
0b
f9
0c
d9
f8
d8
15
13
04
08
19
ee
de
e3
eb
51
3e
48
1a
31
10
27
40
23
2e
00
0a
fd
0d
05
e1
02
f1
02
fe
0e
24
17
0a
10
f6
f8
fd
e8
07
10
02
01
02
10
11
e6
03
06
fe
f3
ff
07
19
eb
06
f0
f5
1d
1f
fb
0d
11
f5
f7
d8
f0
24
1d
03
10
18
0d
24
01
35
11
1a
0b
20
41
22
48
3e
58
2a
15
2f
31
41
48
50
63
61
0e
1b
17
10
19
11
00
12
01
f9
eb
f2
0e
fe
fe
08
f3
fc
f4
05
0c
08
0a
eb
f7
02
ef
08
f4
09
13
ef
13
09
f0
13
eb
ef
f2
fd
02
f8
ea
fc
0f
0e
09
01
04
ee
07
e9
f6
f9
0c
fc
f3
02
ec
f9
07
00
fc
0c
f2
f8
14
04
fd
09
0b
fb
f5
fb
06
fc
0b
ed
f4
0f
01
00
03
f7
f5
03
f8
f6
02
04
fd
ee
f8
f0
06
ee
0d
05
ea
0e
e9
fc
ee
ea
fe
f4
0e
ee
0f
0a
10
f8
f1
f0
14
f8
fe
f8
03
eb
0c
eb
10
f6
f2
f9
07
fa
eb
0c
10
06
18
06
fe
f2
f0
f1
fb
0c
f7
fd
fe
f0
fc
11
0d
0e
fb
fe
0a
f7
f5
10
ff
ef
10
01
09
eb
04
0c
fb
f2
11
08
05
03
01
0d
fa
f1
06
03
07
fc
fb
fc
03
ee
ea
06
f2
fc
03
01
0c
01
03
fc
01
06
0c
e9
f5
ec
f8
0d
e9
eb
0a
f1
0d
05
05
12
ee
10
09
f0
03
fb
f9
fb
f4
10
10
fc
eb
fc
ff
0c
fe
04
03
f2
f0
eb
fe
04
fd
12
fa
f0
02
f8
fb
12
fe
10
01
f6
0d
f2
ff
03
07
ea
ff
f8
0c
05
06
0b
f9
fc
0f
ed
f0
00
f6
ff
11
fb
ef
f8
15
fa
f6
0b
04
ec
13
0d
13
08
f9
f9
0a
fc
04
eb
f5
08
ff
f4
eb
0b
fa
e9
13
08
f1
ee
08
26
48
03
f9
f8
36
08
cc
46
48
26
2d
3d
3d
ce
e6
08
fe
27
28
19
0c
21
66
4d
ee
f8
36
42
e2
e9
01
24
f9
f2
08
2f
42
d3
df
fb
21
e3
db
15
2c
43
c9
e1
f3
30
f1
d5
ec
ed
dd
4a
66
4e
35
20
2c
bf
3c
33
e3
ff
dd
3d
0e
cf
f8
36
53
d1
09
04
f0
fb
dd
0d
38
3c
d0
fb
19
fd
e9
fc
f8
f1
f1
4f
08
21
1d
20
00
11
47
51
be
fc
f1
f8
e2
f2
21
58
47
cd
03
14
d3
cc
06
e7
07
d5
2a
40
20
02
15
f2
1b
ff
f5
4f
4f
36
4a
45
2f
cc
d5
11
e3
dc
08
10
f4
ed
1d
dc
1e
45
ec
c3
47
08
b4
2d
5b
50
fd
f7
06
2f
f0
b7
51
34
15
60
14
ae
47
e8
a9
03
00
50
18
dd
d2
58
0b
cd
dc
ff
24
09
e0
fe
50
18
e9
06
f8
23
01
d9
c7
4f
21
dc
43
3f
53
19
f9
cd
26
00
e5
e0
fb
0b
20
f6
c2
3b
f0
db
e6
f2
68
05
d9
f0
67
20
b4
c7
1a
25
ec
eb
f4
46
09
d8
34
22
de
2f
10
15
e9
f0
2d
ea
07
59
ef
e6
01
5b
0c
d6
ff
01
5b
e2
e3
0d
52
2b
ad
2f
54
32
22
f7
09
02
f2
ed
56
45
16
5c
00
cc
4d
00
b4
48
0b
5d
13
0a
ff
fb
d2
d3
15
0d
27
02
f7
1b
18
09
28
64
74
77
47
26
29
cf
e5
fa
40
5a
5c
45
3b
44
0c
2e
26
fe
0a
fa
e8
e5
ec
18
08
26
08
0c
fd
de
e5
08
03
fa
2a
07
f4
ea
da
dd
0a
1f
11
04
04
f0
09
39
3e
3b
13
21
1e
fb
fd
fe
e9
11
fd
1d
03
17
1e
04
1a
e5
fc
f7
0d
1e
13
0d
ff
0c
ed
03
f0
11
19
18
05
11
f5
20
0b
18
fc
f6
f4
27
0a
09
f4
ef
dc
ee
06
2a
37
4c
40
cf
ce
c7
f0
10
15
28
16
15
2f
2b
2d
08
00
1d
31
2c
19
2d
48
49
ee
1e
18
2a
38
14
0e
21
32
0a
0d
1b
17
19
19
05
f8
07
f5
f9
06
1e
f7
2b
1a
01
08
30
04
15
36
45
2f
32
28
31
29
16
30
1d
0d
12
fe
05
0a
fc
15
f2
f9
f8
f4
f0
e7
00
f6
ed
fc
02
0b
ee
f9
00
08
ff
09
18
26
32
33
25
42
45
1f
33
1e
1d
06
fb
14
0a
18
04
0f
10
0c
04
0c
f3
01
fc
06
f4
14
ee
06
0e
eb
11
ef
fe
0c
fc
11
f6
fd
f4
f9
16
0f
02
00
fd
16
04
fa
eb
14
11
13
09
01
18
09
f8
e4
e4
24
0a
02
35
10
2b
36
1a
3c
34
23
22
4f
2f
57
47
50
31
50
4c
55
3e
44
38
40
40
26
11
15
14
1b
06
07
10
09
10
f2
e8
f0
34
0d
19
21
18
28
1b
07
13
41
29
48
19
19
1d
0b
16
21
1c
1a
f0
04
08
17
ff
16
09
fc
13
eb
10
13
f7
02
16
05
0e
0c
f3
06
f1
10
f4
07
03
35
20
22
2d
29
3f
0e
12
25
01
ff
ff
06
fa
00
fa
12
0c
00
fc
05
0a
00
0e
16
0b
10
10
f6
01
12
f3
00
fa
f2
10
0f
f4
0b
08
0c
0f
13
11
ec
07
15
f5
09
f3
04
0f
0e
1a
0d
1f
03
ee
d9
fc
0a
16
1e
2d
05
29
1b
2e
1f
37
0d
23
4b
34
5d
40
3b
5a
3a
40
42
29
31
27
3a
28
2e
0e
2c
15
31
ee
ff
ed
18
f0
f8
f5
11
22
e5
4b
26
cf
18
45
27
21
48
48
3d
4c
46
38
16
0d
24
29
e1
f2
07
13
e7
f1
0f
fd
1d
f9
e9
ee
16
f3
ed
09
f3
19
f3
f5
f3
17
f0
f6
0b
f1
40
2a
3b
3f
42
1d
23
38
0f
19
fa
20
07
0e
f8
f2
0f
e9
1a
07
0e
17
ff
02
07
fc
fd
f9
eb
ed
f6
fb
f9
ef
0b
09
0f
16
ee
f5
f3
03
04
02
0b
1a
e1
16
1c
0a
eb
fc
14
0b
15
dd
11
01
ff
e0
25
0f
fd
31
24
33
2f
0e
31
2d
3b
0a
40
53
45
5d
55
46
30
36
41
66
32
30
2c
48
39
02
22
0f
11
07
ed
f1
ed
03
f6
ff
fa
eb
ee
f1
f5
02
f5
fd
fb
13
f4
12
ed
ed
06
f2
09
f2
0f
13
03
03
12
0b
eb
fe
ea
0f
fa
fd
f0
f2
00
0f
f3
00
11
12
fd
13
09
14
ff
ee
f8
05
0a
eb
0e
ed
0d
14
03
fa
0b
f7
ef
ef
09
0f
ff
ec
ea
f9
0a
f0
03
f3
0f
f9
fb
ec
eb
00
02
09
eb
02
fb
0a
f4
04
07
09
f7
05
fa
05
f1
ed
ec
f0
f5
01
f9
f2
fe
f7
0b
ec
f8
f1
02
ff
fe
13
f7
fb
05
10
0f
03
f7
07
0b
00
0a
13
f5
fb
ea
02
0c
f8
00
07
00
0f
04
e9
ec
eb
ff
0a
fb
13
fa
02
10
08
fc
12
f1
05
0b
f3
ec
07
f6
f2
04
f1
13
fe
f6
0f
03
03
f4
12
f7
12
fd
08
0c
ed
f2
ea
0c
10
f5
f3
01
08
02
f9
f0
0f
ef
e9
f5
01
05
05
f1
f8
f4
f6
ec
04
fa
eb
f4
f3
f4
f0
fa
08
ef
fb
f7
f2
f9
f4
fe
ee
01
11
0f
f4
04
ea
0f
e8
eb
ea
e9
00
f7
02
fc
fd
f5
f0
eb
08
f2
f9
08
f8
f8
ef
eb
08
f8
0a
fe
fd
ed
fe
f8
f1
f8
fe
ed
01
0c
02
12
07
ed
f5
f8
06
fe
0f
00
f0
f6
ec
f7
0a
ff
e9
ee
08
ed
ed
f3
14
fa
f4
ef
0b
fa
04
02
03
0b
01
