// conv2 weights, shape=(16,8,3,3),  order=(oc,ic,kh,kw)
// 1152 int8 values, two's complement, one per line
08
08
04
06
04
06
0f
12
0d
fa
06
0a
02
0f
03
03
0d
07
fe
f1
f5
f3
ed
f8
f7
f6
fc
ef
00
01
f9
05
04
05
08
04
ff
ff
fb
02
0c
00
fa
f7
f2
ff
0a
05
fd
fa
05
fa
f7
ff
e2
f3
e8
ee
d7
e2
e6
e1
d7
03
f2
f4
10
0d
f7
00
ff
0b
08
0a
0b
fa
fb
f8
07
01
08
00
02
02
00
fc
ff
fd
f9
fd
08
04
09
f1
f9
fc
01
04
05
fc
fd
fc
05
03
06
fe
ff
01
f6
ee
f0
0e
14
0a
f5
f1
f4
f9
f4
00
03
01
00
fa
f8
f7
02
0b
07
0f
28
18
e2
e0
d9
fd
f2
f5
0f
15
09
f3
f9
00
f3
f9
01
f4
f9
ff
02
ff
02
05
03
f6
05
01
f7
08
0b
07
f9
00
08
f1
06
05
fd
f9
f6
02
0a
07
fd
fd
fc
00
f7
f7
fd
0b
0a
f2
f4
fd
fb
fa
ff
f4
f3
fe
03
00
05
02
fc
f1
17
0a
02
f4
1c
1b
07
17
09
03
0c
0c
0b
12
0a
f9
ef
ed
0f
04
00
04
fb
fc
0b
04
fa
0b
06
07
02
08
07
08
05
f7
ff
fe
02
fa
fb
fa
03
04
04
fd
fe
fa
03
fd
f5
fe
03
f4
02
07
fd
ff
04
00
fb
0b
f7
f4
f5
01
fd
02
00
04
02
05
ec
ef
fe
d2
e0
14
f5
f8
11
10
1b
1f
08
21
21
0a
18
0d
0a
0a
03
11
05
02
00
04
07
05
0b
0b
03
03
05
fd
fb
02
06
04
f4
ff
fd
f5
04
02
00
05
0a
06
f9
02
03
f1
f3
ff
ff
f3
04
f7
f6
f9
f8
f3
f2
f3
e7
f4
04
06
03
08
08
fa
f2
f0
ef
07
ee
e5
f4
e4
d8
09
00
fa
08
02
07
09
0e
06
f0
03
01
08
08
06
07
11
03
f9
05
02
0b
07
04
08
04
03
f6
01
fe
f3
ff
00
f9
00
05
fe
fc
fc
07
09
04
06
01
fd
03
fe
07
f8
f0
f3
f4
f8
f4
06
03
07
00
08
f9
0e
0b
fc
e5
fd
0c
e3
ef
e7
ec
d9
ed
f2
06
0d
01
18
09
18
13
0c
06
03
06
04
01
fe
fe
fa
fe
05
05
02
01
ff
04
fe
ff
fe
fe
05
fe
fe
04
f9
f2
e5
f8
05
01
04
ff
fe
ff
05
fe
fe
fe
00
f6
fe
04
fc
06
09
02
f7
ea
e1
fe
e4
df
03
ed
ff
f9
00
fc
26
25
05
0b
23
11
f5
f0
f9
fa
0b
0a
01
0d
07
f9
f5
04
fb
00
06
fc
05
ed
ff
03
fd
fc
08
04
0a
00
02
02
f7
f9
f6
f6
03
fd
f2
fe
00
02
f2
0b
08
fd
0e
09
fe
02
01
fb
0a
04
fb
08
f5
01
07
16
17
00
06
10
02
07
fb
ed
d0
fc
13
fd
fd
ec
c7
cf
fc
d6
f7
0e
0a
f4
05
25
da
03
06
06
0a
07
07
fe
f5
f5
07
0b
0a
00
04
00
f7
f6
f6
fe
03
fc
fd
0e
06
f9
fd
04
ff
08
0b
fc
02
06
f5
fb
f9
fe
00
fd
e8
f0
ee
08
0d
09
fc
fc
f0
05
04
ff
03
f5
fd
0a
14
12
fb
01
fa
0e
19
0a
00
f7
f5
06
fb
05
05
0c
04
ff
03
03
06
0a
09
06
08
04
02
04
03
fe
05
05
ff
02
fd
03
fb
01
04
04
01
fd
02
ff
fa
ff
fd
ff
fa
ff
f7
fb
f7
fe
f5
07
03
05
01
fd
05
04
01
fc
0d
09
0a
06
01
0a
09
00
e6
f2
f4
e6
ea
fe
e9
03
ff
04
fc
f9
fc
fe
e3
db
00
0a
04
08
0a
0b
0d
0a
09
01
06
06
00
09
04
04
07
01
02
01
04
07
fb
fc
fe
fb
fd
fc
01
00
fe
05
fe
fa
01
fa
fa
00
f3
f7
ff
f9
fa
03
fc
01
03
01
fb
fe
f8
fb
f9
f0
f2
eb
ee
f2
e1
d2
e3
ec
ee
e6
ff
09
01
08
08
06
07
03
ff
ff
fb
05
03
04
0a
05
00
03
fc
04
09
04
0c
08
ff
ff
fc
09
ff
02
00
05
08
fd
07
0c
fa
08
05
ff
09
03
f7
fe
fa
04
08
05
04
01
03
f4
fd
f9
fb
f9
f9
f7
f2
ff
f9
fa
f4
01
0a
00
0d
12
11
fd
f5
f9
10
ee
e6
fa
d7
e4
ea
eb
fd
00
02
03
01
05
05
02
ff
01
fb
0a
08
fe
04
09
fa
ff
fe
09
fc
f9
06
0c
ff
03
0e
05
f3
07
0b
f2
03
0d
f6
fc
0c
fc
fe
08
fe
ff
00
06
08
00
f3
ed
f4
06
f9
f5
05
05
f5
03
0a
fd
f3
ef
ea
eb
fb
e6
da
c3
cb
e1
cd
e2
ec
df
f0
0e
0b
05
0e
14
09
09
09
08
f6
f7
fc
ff
f9
fd
f4
f2
ef
ff
fe
fd
fa
fc
f8
03
04
01
fc
fe
fe
05
04
fe
05
00
f9
03
fc
01
0d
0e
08
04
02
fd
f7
fd
fb
fa
ff
03
02
fe
fd
01
08
15
f2
03
f0
e2
e1
e0
fd
f7
fe
06
09
04
fe
04
03
04
f8
fa
03
fb
fe
ff
f9
fd
01
09
05
0c
0b
0e
0c
07
07
fd
01
01
fc
fa
fc
f7
fb
fb
fc
fc
fa
fd
fc
fc
02
00
01
f8
ee
f8
f6
f4
f5
05
01
01
06
01
fe
ff
03
f9
01
00
01
11
15
14
13
13
16
07
03
06
00
01
01
03
fc
fb
04
07
0d
fe
00
07
03
07
01
03
04
ff
fd
f7
ff
f5
f3
f7
ff
fd
01
fd
01
04
09
0c
09
f4
f5
f4
08
07
fe
00
04
fd
00
fd
f7
0c
14
0f
f4
ec
fc
04
05
00
fa
fa
f6
fb
fa
ff
00
fe
ff
f6
e7
f2
cf
d6
bd
d1
d5
e7
fe
09
0c
fb
f6
f9
0b
08
01
