// conv1 weights, shape=(8,1,3,3),   order=(oc,ic,kh,kw)
// 72 int8 values, two's complement, one per line
e9
12
a7
d9
e3
2a
10
41
13
1e
f2
ff
ba
ad
d7
09
06
29
e2
dc
fd
2f
0c
20
18
1d
31
bf
b8
ec
fa
2f
fd
f3
ce
da
b7
3e
1e
46
12
e4
23
ab
d6
e7
25
2e
e9
10
20
3e
2c
1e
51
eb
40
c3
c4
ee
20
15
d5
12
11
fa
01
22
41
22
a7
dc
