// conv3 weights, shape=(16,16,3,3), order=(oc,ic,kh,kw)
// 2304 int8 values, two's complement, one per line
01
fc
fe
05
1a
0a
fb
11
0e
f0
fc
05
e8
d7
ca
01
f8
01
b5
b7
d2
d7
b6
c8
ba
cc
b4
05
01
0e
05
13
08
fa
02
08
05
03
02
01
07
0a
02
19
09
14
f6
ff
14
0e
12
00
0c
14
fe
03
04
e7
eb
e5
ff
f9
05
18
09
00
0c
0b
f8
0e
0f
1a
16
02
0a
f9
00
f6
0a
fa
06
07
07
10
fe
06
fa
f8
ff
02
08
0d
fc
06
05
08
14
08
0d
f3
f9
05
00
0c
0e
04
07
07
07
ed
04
0d
0b
13
0a
0c
0e
bf
c4
c7
d2
cc
c7
bd
c7
cb
e0
fb
e9
eb
e9
de
03
f7
ef
e5
e3
fb
cc
f1
da
dd
f4
f3
0d
f0
f8
f6
08
da
f8
05
08
f0
fa
f6
20
00
32
f7
17
fd
08
f2
32
0d
17
f7
15
05
f8
0b
fb
01
fc
ff
eb
12
22
0c
05
f1
d4
01
f8
f7
e0
03
da
e0
00
01
fd
03
fd
fa
1a
08
37
fb
00
22
1b
f0
12
04
09
fb
11
20
f1
07
00
04
f3
f5
0a
07
f9
f5
f6
f9
f7
ec
f8
ee
fb
ef
fa
f4
0e
f8
15
16
ea
06
09
e9
02
eb
07
00
0d
ef
07
fb
f3
08
ed
da
0a
d5
d6
0a
ea
15
07
11
dd
00
f8
d2
f5
02
13
1b
33
10
1e
1c
f6
eb
1f
02
0a
02
2e
10
2d
f2
e7
0e
2d
19
2b
f7
1f
fb
01
f5
f3
fa
09
f9
1a
0f
f5
c5
d2
fd
f8
06
fd
05
04
0e
ef
e7
f1
fe
19
24
ec
08
da
fb
11
fd
04
0b
0e
06
e0
fd
00
f0
f1
0c
12
24
08
fa
e8
fa
e4
fe
f0
ed
03
01
1f
08
ef
e4
08
09
1e
02
1a
24
14
f1
01
fc
e6
fd
fa
e7
12
f8
ed
07
d9
e3
0b
0d
ff
e7
04
20
13
07
0e
05
04
f9
e9
02
20
19
04
11
0e
fa
f8
f3
fb
01
18
07
df
eb
04
f6
02
02
ff
f1
fa
da
d7
f6
ef
e5
f9
db
ac
f1
08
07
ef
13
0d
ef
ee
f9
f2
e5
0c
ea
ff
0f
ec
d9
f2
e1
ef
10
e9
06
12
f2
fe
05
ec
e7
01
ee
f4
08
ee
1e
0e
16
44
39
4d
15
01
1a
0e
f6
12
14
ef
16
2a
1a
25
fc
01
05
fc
fd
03
01
fb
fb
fc
05
fe
f3
fa
d9
f2
09
f5
04
fc
f9
fd
e1
f4
ff
02
07
1d
14
1e
26
15
2e
07
ff
09
f7
fa
f3
e7
e0
e6
fc
10
0d
15
1f
0f
14
09
16
fe
09
02
02
0a
00
07
fe
fe
fb
f6
ee
ed
ee
ec
f0
e0
f4
fe
f6
00
0b
10
05
fc
07
0d
ff
0c
fb
fc
0d
ff
f7
12
f3
f9
05
fc
16
06
14
0d
ef
01
0c
e6
05
06
fd
09
0b
ef
0a
04
f2
ff
12
14
16
1d
21
23
04
fa
f4
0a
01
00
06
e0
ff
ed
e1
f5
0e
25
0f
16
23
16
09
2e
05
34
1e
e7
4b
15
1b
30
00
e7
ff
ef
ed
14
fe
02
02
10
03
ec
f2
07
f4
f5
fc
f6
fa
0e
fc
02
fc
01
f9
02
f7
ee
fc
05
0c
05
20
1f
21
0b
fa
07
f7
18
03
fd
14
04
f0
ef
f5
0b
04
03
04
05
0a
e1
fa
e6
05
f2
02
f0
e8
fc
0f
04
02
06
f9
f3
19
05
fc
0c
ff
05
09
fc
01
fd
e1
da
02
ee
fa
13
0a
20
e8
d6
04
f6
e2
fc
10
0b
d7
46
2b
25
25
36
38
0b
0d
de
29
27
23
33
3c
0a
18
0f
00
1c
2a
14
27
34
10
07
fa
fb
f9
fe
ea
0c
08
fe
04
04
0e
1f
2f
27
18
09
0b
17
07
18
2e
28
36
0c
2e
22
1c
0d
01
0b
0e
fc
01
fe
02
01
f8
02
fa
f9
fb
f5
04
f2
0c
10
08
07
0a
fd
f9
f8
fa
16
0f
17
07
0e
06
ff
10
fd
0c
09
0c
06
10
f8
03
0e
fa
02
14
ff
08
0c
0c
e6
e3
d9
03
f5
fe
03
f9
05
06
0f
0c
f8
02
fd
01
fe
ff
00
0d
02
03
fa
02
ff
ff
f2
fe
fc
fc
f5
eb
04
f7
ea
f9
0a
08
0e
24
29
43
23
38
2c
27
29
1f
0d
0f
1b
15
20
1b
19
3b
2c
25
1d
23
2d
29
26
05
15
20
fe
01
ff
fe
f9
fb
00
fe
fd
00
fb
fd
fd
01
03
00
01
f9
fc
01
fc
fe
fb
00
03
fa
03
00
f8
01
f7
fa
fc
fb
fe
fc
f7
fe
02
02
00
00
01
fa
00
f7
fc
fb
03
fd
fd
fe
fb
fa
00
00
ff
01
fb
fc
03
ff
fd
ff
ff
fd
fd
fe
01
fb
01
fb
fd
02
fe
fe
ff
fe
fd
ff
fa
fc
fd
fd
fd
f9
fc
fb
fe
fa
ff
fd
f6
00
f6
fc
fa
f9
fe
fb
01
f9
02
01
02
fd
fb
f9
03
fe
fe
fc
ff
f9
03
f9
00
fe
fc
fc
02
ff
fb
ff
00
fe
02
00
fc
fb
fa
fa
fd
01
fc
ff
ff
fb
fd
04
03
01
fd
fd
01
fe
fc
02
00
fa
02
ff
02
fa
01
03
fd
fc
03
00
00
01
ff
01
fd
fb
00
ff
02
fd
fd
fd
ff
fa
f9
00
fb
fd
ff
fe
01
ff
ff
fd
fe
00
03
fa
fb
f9
fc
01
f9
f9
01
fb
02
ff
ff
03
fa
04
02
fc
ff
fd
fe
fd
fd
02
02
ff
f9
fd
fe
03
fe
01
ff
fb
fa
f9
ff
01
fe
03
fd
fa
ff
fc
fd
04
ff
02
fe
fd
03
fb
fe
00
00
f9
fe
fc
03
ff
00
01
fc
ff
04
f9
fa
fe
fc
fe
02
fd
fc
fe
03
fd
fc
01
ff
fb
03
02
03
02
fc
fd
01
fd
01
f9
fc
00
fe
fb
f9
01
fd
f9
03
00
fc
fc
07
e6
00
09
fd
08
fe
df
05
0f
05
f3
f9
18
f1
ff
04
ec
e6
e9
ef
d9
e9
dc
e8
dd
d6
fa
00
01
fa
ef
f0
04
03
10
e4
f9
00
03
f8
0b
ff
dc
f3
f6
10
02
f4
ef
05
fa
f1
04
f1
10
fa
02
14
1e
f6
05
01
f3
d9
10
f9
dd
07
03
d9
f9
07
17
08
01
09
ff
06
0c
fe
18
15
07
ee
eb
0b
f5
fd
04
0c
04
04
2a
08
2b
0f
0c
16
0e
f8
f0
fa
08
f5
ec
06
e7
e2
0d
e2
ee
fb
d0
d9
0e
ed
d3
cc
e9
c2
cb
e6
f2
e3
f0
00
fa
02
df
e6
e5
f6
06
f8
ff
f7
01
02
f5
e1
e7
f4
ee
13
fd
be
1c
e9
03
07
e4
d3
eb
eb
ef
e9
12
3f
d0
13
12
0c
f6
e5
f8
f8
ce
e4
fd
d2
0a
de
f8
12
0d
df
16
f9
e9
ee
f1
fc
01
f1
d3
1b
e8
dc
18
18
e8
fd
f2
08
05
fe
11
10
29
08
f9
0f
ff
ef
13
18
e3
f1
d2
ed
fc
bb
0c
e6
d6
01
0f
2f
ff
13
18
e7
1a
17
dc
25
16
18
f3
d4
15
ff
00
ed
13
24
36
ec
fe
28
06
03
f8
fa
f4
1b
fc
0d
00
f2
12
f3
f0
11
ec
ee
eb
fa
1c
ef
4b
d2
e7
11
dd
d1
f2
d3
f0
11
f7
f1
db
df
cf
f9
f8
f5
f9
f1
cf
09
f6
e4
f2
0e
ef
01
fe
fa
fb
02
07
04
fb
07
05
1c
ec
08
22
10
00
1a
13
23
1d
1e
f1
ee
e4
02
06
06
f8
02
fe
fd
03
05
fd
ff
03
f2
00
1e
f6
e1
fe
0b
d7
e6
fa
02
01
f3
e5
f8
07
fd
07
f9
e4
ec
0e
16
1a
fa
16
05
f4
07
12
00
fe
01
ff
f6
f7
09
f0
f9
d5
f3
d3
f6
01
fc
0e
01
fb
02
06
ee
04
f4
0a
0c
06
03
11
18
1a
f4
e6
eb
fa
07
fc
f7
c8
da
07
fd
25
fe
03
0c
d4
ad
ce
1d
12
1a
f7
06
ed
15
e0
00
1a
28
01
1c
29
19
16
03
ec
11
20
19
13
1d
f5
19
0b
f8
0f
16
1f
11
f2
fb
ff
f4
09
fd
f7
fb
f8
0a
0d
ec
06
10
eb
fe
19
0b
1c
f4
17
ec
f4
0e
06
fa
03
f1
00
02
fb
03
0b
17
07
ea
f3
f9
fe
01
06
09
ed
fa
f0
fd
ee
0c
e9
fb
fc
0f
09
08
fa
08
0e
fb
0e
0e
f0
00
fa
f7
fd
02
f2
f9
fc
02
0d
fc
0b
ff
ef
fd
13
14
ef
22
0d
0a
05
fa
f1
fd
00
fa
04
13
05
07
16
03
08
08
f8
ff
04
08
f8
f9
f1
06
00
fa
04
ed
1f
00
de
17
ca
f8
fa
ec
fe
15
e1
18
01
e6
1e
f6
fd
07
07
fc
0b
ff
f6
0c
01
ef
ea
0a
04
e8
0c
fd
0d
fc
ee
0c
ec
fb
fd
ef
fa
f3
f2
eb
f6
14
0d
0a
0e
25
0f
32
2b
3f
3c
30
0c
04
13
1a
10
20
fb
fc
fd
04
00
0c
fe
fe
05
f6
13
07
fe
fc
f4
16
f1
e7
06
f2
ee
f4
f5
fc
fb
e9
fd
0f
12
0a
1c
23
16
10
f1
0b
05
22
14
0a
f4
03
05
f8
0a
fa
0d
e8
0f
ee
02
09
ff
fe
06
e6
e7
06
f0
05
fc
05
07
15
0f
03
11
00
06
03
f6
f4
06
f0
de
00
ef
ee
f7
f6
01
01
fc
f5
fc
e7
e5
fb
fe
ea
12
3a
42
27
31
37
0e
22
43
09
2d
48
15
17
34
11
21
0b
08
34
37
16
2b
44
0b
24
0a
19
fe
fd
06
01
01
01
f0
fd
17
0e
1b
09
08
00
1e
1d
0c
38
3f
3a
0f
16
f1
04
ec
1b
11
f4
e8
08
00
05
fa
e5
f2
fb
02
fa
f0
07
00
f7
fa
ff
0f
04
ff
fb
ff
01
fb
f4
fc
14
00
14
fd
18
0a
0d
f8
0f
0e
05
11
05
0f
09
fa
fa
ed
ea
fb
fb
11
04
fd
fb
05
f5
07
f5
e1
18
01
00
02
f5
fc
fd
00
dc
ff
eb
04
16
f8
ff
0b
03
02
11
02
f0
00
ff
f7
0e
0c
0e
06
0f
fe
fd
02
06
3f
38
2a
1e
f5
09
11
0a
23
1c
19
2a
1c
0d
0c
ef
0c
0f
41
26
28
1b
1c
30
02
18
03
23
ed
f3
15
d6
fe
04
e9
02
05
0a
fa
d4
3d
04
e1
26
ea
1c
11
da
03
fd
c7
01
f8
e5
0b
e2
f5
17
ef
f2
15
01
10
e4
e7
fa
f7
f6
1c
04
f6
ec
06
f7
f8
0b
e0
ff
fd
cc
f4
22
11
1a
f6
01
08
f7
0c
0a
ea
ef
16
02
f5
fa
fa
fe
01
ef
13
16
e3
15
fc
f6
fb
07
05
05
fd
f6
f3
fb
04
01
0e
0a
06
05
19
17
0d
01
03
09
04
05
ef
f5
f5
d9
f7
ee
f0
02
0f
f9
e5
00
e4
f5
f6
ed
33
15
cf
34
dc
e2
25
19
03
0d
0e
04
0b
00
04
1d
13
06
00
1f
fb
26
25
04
06
0c
fe
fe
fe
02
02
fd
02
fa
ff
01
fd
f9
02
fd
fb
ff
fa
03
fe
fc
02
ff
ff
fb
05
fc
02
ff
00
01
f9
fc
f8
01
02
fb
fb
00
02
ff
fe
fc
04
fa
fa
fb
00
ff
ff
fa
fe
fb
fd
fb
ff
fe
fb
fb
fb
fd
fc
fc
00
fa
ff
fc
fd
fe
fd
fd
fb
00
02
04
fd
ff
fa
04
fa
f9
fb
fa
fe
fc
ff
ff
fd
fd
fa
fb
02
fa
fc
00
fe
fc
fa
f9
02
fc
03
00
fd
fb
ff
fe
fc
fe
00
fb
00
01
00
04
02
fb
fd
fe
02
fe
02
00
fc
fe
f9
fe
03
fe
fa
f9
00
f9
fb
fb
03
fe
fb
fa
01
fd
01
01
ff
03
fe
