// conv2 weights, shape=(16,8,3,3),  order=(oc,ic,kh,kw)
// 1152 int8 values, two's complement, one per line
14
2b
2c
06
18
0b
24
19
1d
07
1c
1e
1b
16
00
fd
0d
08
09
08
22
19
0b
0f
0c
18
0c
fe
0b
0c
01
0e
fc
18
0d
f9
1c
1e
19
25
22
1b
13
1f
0d
fa
fb
f8
11
0b
13
13
f6
07
2c
20
16
25
26
23
2f
1b
23
0f
02
04
24
20
0b
1e
16
1d
2e
38
34
13
2b
10
fb
03
ff
1f
19
0e
03
0d
f8
ed
df
f1
11
02
19
15
fd
19
1e
18
21
0e
1e
19
17
0f
14
f7
f6
fa
dc
fa
00
05
f6
f6
b8
c1
c5
ed
d9
e8
03
fa
e7
01
f3
05
f0
03
e6
e1
f3
d1
c5
b7
b7
e0
cf
d6
fc
e4
e2
f7
dd
d7
10
1e
11
10
0c
05
10
1f
04
f7
f8
eb
fc
f4
f2
00
02
09
0e
07
19
ef
fe
f1
e9
e8
e7
fe
04
fb
ea
ee
e9
0a
f0
f7
18
2c
15
21
1c
0a
15
15
20
fc
ee
f2
01
00
06
e3
fc
f6
15
2b
17
17
2e
34
1e
24
1b
27
34
28
1a
2b
28
1a
2c
26
08
f6
10
0e
1f
13
1a
1c
0d
f0
0b
09
1b
1a
03
ff
04
f7
0b
07
ff
03
0b
0e
06
0c
00
06
17
19
10
07
0b
ff
ed
f0
2a
2b
0a
0c
09
12
08
02
f7
fc
04
08
08
10
1d
22
fd
21
08
33
fe
1c
28
12
1a
12
09
09
11
f0
e0
08
ea
1c
0d
fd
03
14
11
28
1e
17
1c
1a
2e
20
26
2d
24
15
20
11
04
17
07
07
f7
13
0f
05
0e
10
04
0e
15
0a
f8
10
13
f7
ee
0e
26
03
2c
1e
08
2a
f4
02
1c
f8
e5
e8
05
0f
0c
29
15
07
1d
12
23
11
09
12
11
06
11
03
f2
f1
f9
fe
05
1e
1b
14
e9
ee
f5
22
1c
23
35
36
21
f1
1b
18
33
2d
1b
21
0c
0b
04
fe
f1
fe
0e
fe
0f
1a
13
00
01
0c
1d
22
1e
21
17
0d
23
30
1f
31
12
1f
18
2e
24
02
f7
f6
fa
f8
02
0d
08
08
2c
2c
06
2d
3f
34
28
2c
2d
1b
2c
00
03
18
e9
1e
16
2e
03
03
0b
10
04
00
fc
f6
f9
ff
10
fd
ec
f3
03
d4
e5
dc
12
0f
fc
f3
f1
00
ff
f5
fc
de
dd
dc
d6
f0
e5
01
fa
ff
d5
e9
a9
c4
ee
ce
ee
fe
e3
09
0f
13
ff
ff
0e
16
01
1a
32
36
30
1c
1e
15
ec
ec
eb
10
fc
f3
0c
12
05
08
03
0d
02
f9
00
fd
1e
0a
15
0e
ef
16
18
15
01
29
24
28
0c
0b
fa
03
f3
e6
f4
f1
df
e7
e6
03
26
16
20
26
23
26
23
21
04
35
1a
10
05
08
1f
09
08
ed
fb
e9
f0
dc
e7
de
cd
d2
f0
25
f4
0a
26
06
0e
20
09
06
1d
fd
08
13
06
ee
f6
fb
e8
ed
dc
21
18
1b
0f
fc
fa
0f
13
20
fd
14
ff
dc
d7
e0
08
07
f5
1b
22
0e
33
1e
1e
03
17
21
02
01
18
ff
ff
fb
ef
fa
ff
d5
f8
d2
cb
c7
d5
ed
c8
de
f9
f1
f0
2a
06
15
d5
e3
c8
a9
d5
c8
d0
bc
c7
e8
e2
ca
e8
e1
cf
f8
fa
d8
04
e2
f7
27
12
0f
15
14
03
03
20
07
02
0c
13
f2
f4
f4
00
f3
03
09
0e
1b
21
2c
1d
fb
f5
fe
f6
f1
f2
05
e1
fc
f3
de
e7
09
e1
de
e9
dd
f5
f2
f5
01
24
1d
40
15
1b
37
06
06
e9
db
dd
d6
18
fb
0e
c0
c3
da
d5
e8
e2
03
0c
1d
15
05
11
07
f8
16
f9
e8
e7
fa
e9
e7
04
f4
01
08
01
17
1b
27
2b
12
1d
10
fc
fa
fe
02
00
ff
0c
f8
fc
00
f8
09
0a
06
fa
f0
f6
ea
1c
0a
14
fd
19
11
04
fc
05
f0
d9
dd
19
07
0d
fb
0f
e8
0e
13
02
2a
4a
2a
f5
eb
e7
05
f9
f8
d3
f0
ed
2b
3d
37
01
04
f3
fc
0f
22
13
16
12
e8
ed
fe
f2
07
00
21
13
1f
12
25
20
0a
1c
24
12
10
15
ef
e0
ef
f4
e7
0e
e1
e1
e4
cb
c5
c0
da
e5
ec
02
e6
ed
24
1b
03
fc
f5
01
c6
db
c2
d8
df
eb
f0
f0
db
e4
d0
dd
e0
d6
d9
13
16
20
35
59
3f
1f
19
0c
2e
4b
4a
27
1e
23
bc
b2
c2
f8
df
dd
16
17
fe
35
43
29
19
2d
2f
f7
09
14
f1
d3
fe
1f
0d
2c
ed
13
0b
b6
c2
e4
f4
ed
f9
11
06
0f
28
10
05
16
07
11
de
f0
e9
cb
c0
af
dc
d4
d5
fe
19
05
14
07
1d
24
1c
0b
0b
0e
f4
f6
03
f6
02
00
0c
fe
07
0b
fc
f3
f4
f5
f9
ea
f2
e5
f9
ef
02
f1
ff
0b
0b
11
05
f8
11
01
06
09
11
fc
12
20
24
1b
14
11
0f
0e
15
09
fd
0a
01
0e
15
1e
2c
23
fa
24
ff
fa
06
13
06
15
ff
20
20
23
23
2c
1b
1e
15
10
20
10
13
04
0e
05
02
10
0e
17
15
17
1e
07
19
fe
f8
09
f6
f1
ee
eb
fd
ea
f5
f8
ef
eb
eb
f3
f8
ef
f7
f0
ec
df
e5
f5
db
f5
fa
ef
14
0a
03
0b
03
13
f7
08
05
1b
30
2e
21
33
21
27
1a
2a
e8
fc
0a
00
e8
04
06
09
09
fe
09
07
12
06
ff
0a
05
f8
e9
e8
fb
e9
e4
f1
f7
f6
f2
fd
f7
01
fd
0a
f2
fc
f6
01
17
18
03
06
0b
0c
0c
fe
f6
1f
1d
25
12
1e
1c
12
01
01
f8
ef
0a
08
f1
02
07
14
0f
f1
fe
ff
fc
fb
03
03
08
fc
30
38
38
28
38
2c
1d
35
2f
