// conv2 weights, shape=(16,8,3,3), order=(oc,ic,kh,kw)
// 1152 int8 values, two's complement, one per line
fb
3d
3a
eb
0f
04
10
01
21
01
2f
2f
19
16
eb
f3
1a
14
f3
f2
2d
20
f8
09
fa
07
fc
f5
19
17
f8
22
f6
1c
22
ed
06
0a
fd
19
24
10
f1
25
e0
e6
e6
ea
0c
fa
14
0a
d2
f4
36
1f
15
08
0b
10
26
1d
1c
f5
c7
d9
3e
1b
10
16
05
00
2d
44
4b
cf
1a
e7
ff
ff
1b
0b
06
05
e1
05
e9
ef
da
fc
27
f8
2c
14
e4
1e
1a
08
37
dc
13
02
16
19
23
f5
ff
fd
ba
03
f3
37
0f
2a
bf
ec
c2
ff
cc
ee
13
07
f3
01
ec
27
0b
38
01
0f
1c
e7
e4
de
dc
f1
c7
c5
32
ea
f7
45
24
0e
00
23
0a
0b
04
14
16
2b
1e
1d
1a
f9
0d
f0
fb
0f
12
20
eb
ee
09
d8
04
dd
ef
e2
e4
f6
15
f5
d8
ec
d8
f8
dd
d7
f1
24
15
1a
18
f8
ee
09
13
10
e1
f8
09
19
1b
ff
25
19
25
3d
29
16
1e
3d
2a
48
1a
13
01
01
17
32
24
21
20
17
19
f8
1f
09
0a
21
fd
11
17
ed
1e
23
14
11
fc
fa
11
fc
06
08
eb
00
07
05
0c
05
f3
0e
31
34
12
14
1b
ec
ed
e8
35
24
fa
11
22
22
15
21
f1
ec
fe
01
ee
0d
0e
27
ec
19
12
3f
0f
1d
13
12
fc
14
e7
04
d8
cc
f2
0f
02
3c
27
ee
f5
16
07
32
0b
0c
f9
ff
34
2f
3c
3c
32
15
28
1e
12
2f
07
04
ed
17
0a
ff
07
fe
f9
2e
38
1c
f0
26
21
ef
ed
1a
28
eb
25
10
f6
1b
cf
f4
06
f2
cd
e1
02
05
18
4a
1e
10
28
39
2e
f0
f6
e9
ed
03
e7
eb
e6
d1
ef
ec
fa
0d
27
f5
e4
fc
15
37
0a
38
10
1a
1d
f4
40
33
3b
31
09
26
0f
20
e1
ec
e0
f9
0c
f2
16
14
11
04
0d
15
17
33
1f
fc
13
e6
0a
17
f6
11
ef
f6
db
1a
ec
05
f6
fe
ff
f5
04
1f
15
04
40
2c
05
01
1e
1e
ec
19
0c
fe
f5
cc
07
05
ea
1b
fc
12
22
1d
31
23
00
0f
0d
f5
04
1e
33
0b
ff
fb
20
e8
f2
e0
0a
0d
de
d4
d6
ef
f2
e4
ed
06
ed
f9
e9
e0
e9
07
da
ed
00
1f
d0
db
1f
e0
fa
fb
f3
f0
0d
0b
f2
ff
12
2f
0b
3c
3c
3e
4d
40
46
35
fd
fb
04
09
e5
e2
15
34
0f
0f
11
2f
05
fb
13
18
2a
31
08
f3
f6
1d
21
21
ea
30
33
1e
f4
02
f2
15
f5
f9
0d
fc
f9
fd
08
f0
38
0e
0d
32
23
05
28
0e
05
42
23
ef
0d
f1
1e
0a
e7
fe
fe
ff
11
f4
0a
0a
ee
f0
00
30
ff
17
21
09
f7
2d
f2
2c
ec
f8
27
f5
14
0b
f9
fc
10
2d
05
1c
0d
0f
1e
ee
0b
26
17
2f
fd
28
f2
f5
f7
05
03
09
f7
01
14
ff
28
f8
11
08
26
29
f6
ec
13
fe
04
e3
1b
23
09
dc
12
e3
f6
f8
dd
f9
c5
f7
f0
f3
0b
35
01
34
13
12
f4
e9
23
f6
f9
00
06
0b
fa
ca
fa
e0
de
1d
2b
f4
23
04
0f
32
17
1e
ff
24
08
ff
27
09
fc
19
2e
fb
0d
19
0c
e2
f4
f5
e8
05
28
2a
17
18
07
2b
f0
eb
03
0c
dc
10
0f
e5
fd
13
e2
ed
f5
d6
fd
f9
f2
d6
21
f0
27
0a
0a
38
1e
23
06
f7
f9
e0
f6
fb
f5
e5
f4
dd
eb
e6
dd
f9
10
0a
19
fa
23
e5
f8
19
1e
f3
0e
02
ef
f5
fe
e5
00
09
fa
1e
0a
18
2a
fb
0f
fa
fd
f8
02
ee
04
fd
0f
fa
03
f2
ed
11
fa
f6
ed
11
09
19
0c
19
15
07
17
22
11
07
0a
16
e7
ed
0c
e5
00
fc
21
ea
1d
2f
0f
11
32
03
1a
0a
0e
18
0a
ff
ea
1a
16
18
33
38
f6
ff
00
f0
11
3f
17
22
24
dd
f8
17
e5
09
fd
21
fd
19
04
17
27
12
36
3b
0e
14
19
e6
d8
e4
08
ed
1d
f8
f6
fe
fb
fb
c8
d6
ea
ea
18
e2
ef
4c
3c
15
28
13
30
07
16
dc
d3
00
07
f6
e7
b7
18
d8
f7
16
14
1a
0e
2b
09
03
35
17
f8
f9
f9
0a
4c
41
16
0b
26
ed
db
fc
12
d6
d9
15
27
02
34
3d
38
1c
3e
35
e6
03
0f
02
d4
fd
07
d2
13
e7
00
e2
c7
f1
d3
fb
e2
00
1d
0b
29
46
42
33
28
2c
24
e6
f0
da
d1
e7
be
be
bf
c0
09
fe
04
2b
3a
41
3f
1a
0f
0c
0f
f0
e1
fc
f4
ef
f7
16
f0
0e
13
e6
e3
df
fb
02
e9
f0
d9
07
f4
1c
fc
e8
0f
03
14
0a
e3
13
fe
fb
0c
1d
e4
19
39
34
30
1f
15
1f
05
27
02
f0
0f
f2
0c
24
23
1e
2e
07
40
04
d9
fb
18
12
0b
e7
25
0c
1a
39
2d
1a
30
13
23
31
04
2a
18
15
24
0a
21
1a
18
0e
24
3a
0b
27
f3
f3
11
fd
f3
e8
e9
ff
e4
e2
03
de
da
e6
e1
e1
ef
f2
d3
ec
ce
ed
0c
d1
f5
23
f1
22
fe
00
12
09
1f
e9
f9
0e
2b
29
45
19
36
0a
53
28
42
cc
cb
f3
1c
f8
03
11
03
03
e7
f7
fc
2e
10
fc
0d
ff
fe
dd
ec
14
dd
da
ec
f2
ff
f7
f1
df
f4
0a
26
ee
fb
ec
05
22
2a
ef
02
1b
17
0a
f5
e4
40
2b
36
ff
2b
31
1e
f5
f7
f1
d6
1a
11
ef
08
06
14
06
e1
f0
10
0a
e8
03
18
1d
04
29
11
24
07
25
1f
23
3c
46
