// conv1 weights, shape=(8,1,3,3),   order=(oc,ic,kh,kw)
// 72 int8 values, two's complement, one per line
ef
1a
e2
e1
11
f4
01
29
04
1c
ef
08
f3
c0
f7
16
ff
24
d1
d6
d3
29
30
11
13
1b
0a
f0
ea
eb
06
23
eb
f9
f6
e6
ee
1e
06
18
33
07
eb
d9
d1
d1
10
1d
d5
05
26
08
1b
1c
1a
10
13
d7
cc
df
15
1d
0e
0d
08
dd
27
11
ef
15
f4
dc
