// conv1 weights, shape=(8,1,3,3),   order=(oc,ic,kh,kw)
// 72 int8 values, two's complement, one per line
fe
43
d4
de
1a
01
f5
3c
e5
35
f2
0d
cd
93
cf
2a
0f
3b
a4
be
be
3a
3e
25
20
44
26
c4
d2
b4
13
7b
fa
dc
f3
ca
ef
46
17
2f
53
16
cb
a3
a4
c8
39
53
cc
1d
4d
21
14
f3
42
27
35
af
a1
c5
1c
22
14
12
18
ca
45
31
e7
27
dc
ae
