// conv3 weights, shape=(16,16,3,3), order=(oc,ic,kh,kw)
// 2304 int8 values, two's complement, one per line
f4
fc
fa
fb
2c
f5
f6
0b
15
d1
ed
fe
f3
0f
f6
30
2c
0d
c8
fb
2b
df
fa
16
ce
0b
09
f5
06
0a
06
22
eb
fe
13
16
04
fa
fd
0a
08
f0
01
09
08
01
04
03
05
14
fc
e1
05
0a
2f
2e
26
fa
f4
e7
0a
16
05
fa
fe
e8
f3
07
d9
d1
02
02
ed
00
17
fe
0c
f5
23
17
fb
f5
0b
05
1a
29
eb
18
22
f3
f3
fa
fb
09
15
38
04
12
24
e2
fd
16
fc
20
f8
1b
0c
0d
f5
e9
0c
1d
22
06
2f
24
18
e8
f2
07
c3
06
0c
eb
0b
18
08
22
2b
f3
f7
f5
01
09
16
f5
16
36
d1
0c
14
e4
14
2b
05
09
08
f7
02
fb
03
fd
01
f7
f5
03
01
ff
06
fa
02
f9
01
fe
07
08
08
00
05
f4
f8
00
ff
f7
f9
fa
f4
ff
05
03
fa
f5
f6
ff
07
fb
f9
f9
fe
f5
f6
0a
fa
fd
fd
f5
fd
03
fc
ff
ff
f5
07
07
06
fb
05
f5
fd
fc
fb
03
fa
fd
fb
f5
fc
f5
04
04
09
fb
ff
01
09
09
f9
f5
f5
f9
07
02
09
06
ff
f8
09
07
03
f9
07
ff
05
03
05
f5
fa
05
fc
f6
08
ff
07
f6
03
fa
f9
fc
fa
04
fc
08
01
fe
fa
f7
fc
f6
fd
ff
ff
fb
07
06
fe
fc
07
0a
f6
fd
fe
fb
0a
ff
08
00
fd
fb
03
0b
0b
04
13
01
0d
10
07
09
fe
f8
01
0d
fa
07
14
f9
fd
ea
ef
e9
d5
db
00
f6
fe
f8
03
fa
01
fd
fc
0b
fe
04
12
00
02
02
0e
00
04
09
06
09
fb
09
08
06
fc
09
0a
06
e5
f2
ef
ea
00
f5
e2
f7
fb
fa
f8
04
ff
fc
fb
f9
fc
04
fe
fd
02
06
03
03
fe
17
08
03
f3
02
0a
ff
fd
18
1c
07
0c
07
0b
0a
fe
06
14
07
07
fa
ff
09
0a
06
07
fa
04
f5
0e
fa
fc
0a
05
fd
05
0d
f8
e1
e9
ed
e9
d8
ef
ef
df
ed
02
fd
f9
f9
e2
f5
ec
c9
e0
f2
e5
eb
f2
ec
fd
f0
e9
f5
f5
07
fa
f7
fe
f7
f9
04
f7
03
05
fd
02
f7
06
09
01
08
f3
fc
00
f5
03
fa
f9
f5
02
f7
fc
03
07
01
fb
f9
05
01
08
03
07
f6
07
fa
fb
fe
fc
00
08
f8
02
f6
00
07
05
07
03
fd
00
fa
07
05
f6
07
fd
fe
fc
fc
fe
f8
f4
f9
fc
06
06
f8
fe
fc
f9
fd
fa
03
f8
00
f8
fb
07
fa
fe
08
02
f9
f8
fb
fb
03
fc
07
f9
fb
03
07
09
01
00
fb
06
f8
fb
f5
f0
ff
fa
06
06
03
02
fa
00
03
01
00
00
ff
f7
02
f7
05
fa
fc
fb
07
f7
04
04
06
01
05
08
02
03
f8
fd
00
00
fb
f8
0a
0f
08
f2
fd
ec
e9
e6
24
2e
1f
21
25
13
12
fb
0a
2a
4f
3b
1e
52
40
2a
3c
11
02
18
0f
04
ff
02
00
f2
fd
f2
12
0f
04
f3
f2
fc
f9
fb
04
13
06
f6
f9
f8
f0
f2
e7
10
fb
00
19
17
08
24
12
0c
06
0a
10
08
0a
0d
f8
e9
ec
fa
17
0c
05
18
07
02
05
09
f2
06
f9
f8
14
f5
f6
04
f8
04
05
fc
fc
ff
00
ea
ee
e7
0b
19
16
ff
0c
fc
0b
fa
fd
0f
24
24
f1
fa
f7
01
ef
fe
2b
20
3c
26
34
27
09
0a
f2
18
0d
1c
2a
24
27
43
47
38
17
37
26
04
28
0e
04
14
fd
f5
f2
ed
f4
fa
ee
ec
ef
fc
24
04
16
17
11
27
2f
22
25
14
17
1a
1c
16
18
30
3c
4b
ff
f7
f3
fe
09
05
ff
03
07
07
f9
f9
ff
f6
01
ed
fb
e8
02
02
fb
fc
04
f1
eb
f3
f4
16
f5
05
22
1c
11
30
35
31
0e
f8
fc
fd
00
02
f2
09
00
11
17
17
1e
17
12
17
06
09
fc
fb
06
07
04
0a
0d
15
13
df
e8
ea
fd
f9
fb
fa
07
f1
0a
06
04
14
17
08
12
11
03
07
fe
04
16
12
09
11
10
0b
12
06
14
1e
24
2a
2b
5b
48
46
42
4c
17
21
27
21
2b
2d
3d
4a
47
24
38
35
1c
31
2d
ff
08
00
fc
f5
f8
07
ff
fe
03
f9
fe
fa
02
05
04
04
f5
fb
01
f8
04
f9
04
09
f7
0a
04
f8
09
f5
f7
f8
fe
00
fb
f4
fd
07
07
04
00
01
f6
03
f4
fa
fc
05
fd
f9
00
f6
fc
03
00
fe
06
f9
fc
09
01
fe
04
05
fd
fa
fd
02
fd
05
f6
fa
07
01
00
01
fb
fa
01
fb
fb
01
01
fe
f6
fb
f7
03
f6
06
02
f4
06
f4
fe
f6
f4
fe
f9
06
f7
08
05
07
fb
f8
f7
09
fb
fe
fc
01
f5
05
f5
07
fb
f8
fc
04
fd
f6
05
07
02
0c
03
ff
f8
f7
f8
fd
06
fb
fe
ff
f8
fd
08
07
07
fe
ff
04
fb
fb
07
ff
f7
07
00
04
f5
01
05
fd
f8
08
03
02
01
01
06
fd
f9
03
02
03
fe
fe
fd
02
f7
f4
02
f8
fd
01
00
05
ff
01
fd
00
02
05
f4
fa
f5
fb
06
f4
f4
04
f8
06
01
02
09
f7
08
04
f8
01
fe
fd
fd
fa
07
07
fe
f5
fd
ff
05
fe
01
01
f8
f7
f5
fe
02
fe
08
fc
f7
00
fb
fe
08
fe
07
00
fa
06
f8
ff
01
03
f4
ff
fb
05
02
02
05
fc
fd
07
f6
f7
ff
fa
ff
08
fe
f7
fb
0a
fd
fb
06
02
f6
09
06
09
03
fc
fd
05
fd
02
f5
fb
04
ff
fa
f5
05
fd
f4
09
03
f8
f6
02
09
15
ff
fa
fb
19
03
df
41
3a
27
27
20
30
07
18
1c
ec
fb
db
0c
ff
e5
00
f0
c1
f7
07
00
e5
e5
f0
07
f8
ec
05
16
16
e1
eb
fa
13
fc
f4
04
08
0b
da
e7
f1
18
ff
f0
12
01
f7
39
36
1c
04
f2
f9
cb
0a
04
f0
05
ee
2b
16
f5
21
35
33
ed
00
f9
fd
0f
fa
29
31
2d
ea
ea
0e
f2
ef
f7
f9
f4
f0
4b
1b
1f
14
09
f9
1b
2b
24
db
f0
f0
06
04
02
20
35
22
d0
ea
f8
e6
f3
09
d2
e6
bb
0a
03
e4
eb
f1
df
19
04
f9
1b
16
01
02
04
f1
f8
e1
ee
f2
f1
ee
f9
f1
de
1e
f8
0d
2f
01
e5
2d
0b
e6
1b
28
1a
0a
ff
fc
1e
f0
d2
3c
12
08
4c
f6
a7
40
f4
ae
12
01
1b
1f
f9
df
35
0d
ee
01
07
0c
12
fc
ff
29
11
fe
17
05
0a
0e
f6
e1
2b
15
fa
f8
08
1a
fb
e6
d3
0c
f3
d9
04
01
f2
10
fa
da
15
f4
f0
fe
ed
25
1b
f2
e6
41
15
d3
ee
07
07
0c
fe
ee
34
07
ef
15
16
02
1b
0b
12
07
01
1a
02
fe
1e
0a
fa
f0
33
05
e8
11
fd
1d
09
00
fd
2d
1a
d9
20
18
f5
0d
eb
ed
0c
e3
d3
20
19
fb
31
f2
d4
1f
e2
b8
22
ea
02
17
f7
df
09
dc
cc
12
0e
1b
fd
ef
07
10
00
18
33
47
3e
19
04
07
c3
cd
e1
35
33
48
d7
bd
e5
f2
dc
00
0e
17
0c
ec
e1
ed
0e
fd
16
11
16
0e
e6
e1
fc
fe
f4
16
11
05
01
e2
d8
fa
19
07
09
d0
da
d5
05
12
03
e9
fe
f4
0e
01
06
e4
e6
ec
18
fb
0e
12
17
19
dc
e8
ef
dd
f1
f4
14
1b
0e
ec
f2
df
fa
07
06
f1
f4
ef
0b
02
09
fc
f6
f7
1c
1b
10
e6
de
de
d2
e4
02
2e
46
36
da
d4
dd
db
ee
fa
24
03
12
f3
d3
f6
04
e3
00
12
09
0a
f5
ee
fb
cf
c7
e4
00
f6
f3
ee
de
05
e5
d0
eb
0a
0d
02
04
fe
ff
fe
fa
ff
21
12
19
14
0b
03
1e
08
10
26
33
0a
37
40
15
2c
23
02
0c
05
f8
00
04
fc
fc
05
f1
fb
fd
ed
f6
f5
fb
fd
f6
fd
fa
00
e6
fe
00
fe
04
02
0a
29
23
2b
23
30
29
12
1b
0b
04
fe
ec
0e
09
0d
10
0f
0f
1d
1d
05
ff
0e
f3
fa
f9
03
11
1a
0d
ff
10
f0
f5
fd
f0
0c
fb
06
0b
09
14
13
07
fe
0c
1c
fd
03
00
03
05
0a
01
0a
19
fc
f7
f2
e5
05
ff
fc
29
18
11
36
23
22
2c
20
0a
3e
22
33
2c
30
1f
47
44
35
30
3f
1a
3f
47
14
18
1e
00
0e
02
11
ff
02
0f
f7
fe
fe
27
12
20
0e
03
15
f5
01
00
1c
34
3c
fa
17
23
f4
02
0b
0d
13
15
f5
f6
0f
ee
06
fe
fa
05
09
0c
0a
0a
04
16
0a
03
04
13
03
fa
15
ff
12
0c
27
19
0d
06
0d
10
0a
05
12
06
06
2b
13
14
18
1a
28
20
f5
ff
0b
fd
f3
10
ea
f0
f1
02
fa
ff
01
e6
fd
d1
e7
eb
25
25
18
fa
09
01
03
ff
f6
04
0f
0b
02
ec
0a
f1
02
02
f4
fd
08
ee
d8
00
ee
01
00
13
19
3f
0a
26
0c
09
fb
0d
06
04
19
0b
11
22
1a
2a
47
02
19
1a
f7
05
04
04
21
12
15
f6
00
ef
0a
f7
ef
f3
ff
23
fe
33
19
ef
17
2b
1f
25
2b
3a
31
3e
46
3f
03
0a
0e
13
f1
f9
fc
07
f2
e7
fa
f2
0c
fa
f4
f4
0b
fa
ed
ff
f3
07
f7
fa
f1
09
f7
eb
fa
ec
34
28
31
26
22
1b
16
15
0a
07
fb
14
ff
0b
03
ee
02
ec
1e
0c
11
16
07
0c
01
f9
00
06
fa
fe
ff
03
06
e8
f7
01
0e
16
fd
fe
fe
01
01
01
01
19
f8
13
14
0c
fe
fc
08
08
12
f1
0c
fe
fd
f2
0d
01
00
20
28
32
1a
18
26
03
09
f2
1a
3c
2a
34
32
35
34
45
44
44
31
2e
22
32
29
04
11
08
08
03
f6
f8
f5
01
fa
fe
fc
f7
f9
f9
fa
00
f9
ff
fd
09
f9
09
f7
f6
03
f9
05
fa
08
0a
02
02
09
05
f6
ff
f4
08
fd
ff
f9
f8
ff
07
f9
ff
08
09
ff
0a
04
09
ff
f6
fc
02
04
f6
07
f6
07
0a
02
fd
05
fc
f8
f8
04
07
ff
f6
f5
fc
05
f9
02
f9
07
fd
fc
f4
f5
00
01
04
f5
00
fd
04
f9
02
02
03
fa
02
fd
02
f7
f6
f4
f8
fb
01
fc
f9
ff
fb
04
f6
fd
fa
01
ff
fe
09
fa
fc
02
09
08
03
fc
04
05
00
06
09
f9
fd
f4
01
06
fc
01
04
00
08
02
f5
f7
f5
01
06
fe
0a
fd
01
08
04
fe
09
f8
03
05
f9
f6
03
fb
f9
02
f8
0a
ff
fb
07
02
01
fa
09
fb
09
ff
04
06
f7
f9
f5
06
08
fb
f9
00
04
01
fd
f8
08
f8
f4
fa
01
02
03
f8
fc
fa
fb
f6
02
fd
f6
fa
fa
fa
f8
fd
04
f7
fe
fb
f9
fc
fa
ff
f7
01
08
07
fa
02
f5
07
f4
f5
f5
f5
00
fc
01
fe
fe
fb
f8
f6
04
f9
fc
04
fc
fc
f7
f6
04
fc
05
ff
ff
f6
ff
fc
f9
fc
ff
f6
00
06
01
09
03
f6
fa
fc
03
ff
07
00
f8
fb
f6
fc
05
ff
f4
f7
04
f7
f7
fa
0a
fd
fa
f7
05
fd
02
01
02
05
01
