// conv1 weights, shape=(8,1,3,3),   order=(oc,ic,kh,kw)
// 72 int8 values, two's complement, one per line
e7
20
b8
d2
e0
2d
0b
49
12
1e
fe
09
c5
ad
d3
03
0a
22
f0
ed
fa
33
0b
15
12
17
18
bd
b1
d7
03
32
02
f1
d1
d1
c7
3f
1b
4d
0f
ce
32
b4
ba
db
19
1b
e7
0e
21
45
39
15
5a
f2
32
e7
ce
d8
36
15
ab
0d
10
f4
ed
11
43
24
a4
e9
