// conv1 weights, shape=(8,1,3,3), order=(oc,ic,kh,kw)
// 72 int8 values, two's complement, one per line
fb
36
a2
a4
c3
15
10
6c
10
26
e7
f8
83
99
b7
07
29
43
c7
d5
17
67
00
4f
1d
29
6b
89
9d
c5
d4
47
ba
d4
af
9f
b1
49
17
45
0c
d1
14
8b
a5
db
42
3b
e3
05
43
73
39
21
61
e0
37
9f
af
c6
3e
38
da
2b
43
01
0f
25
52
4c
a0
d1
