// conv2 weights, shape=(16,8,3,3),  order=(oc,ic,kh,kw)
// 1152 int8 values, two's complement, one per line
03
08
06
fc
00
02
05
0a
08
fb
02
02
08
0a
03
06
09
06
f7
f9
03
f5
fa
fd
00
07
03
f8
f9
f7
01
01
fd
0b
07
03
04
03
02
07
08
01
f0
f1
f1
f9
fb
fd
f8
08
05
06
0c
fe
f7
f5
06
e6
ef
00
d9
c1
c5
fe
fc
0c
0a
07
05
f7
05
0e
06
12
0b
fd
05
02
06
04
08
fd
fd
00
fd
fd
fd
f7
f2
f7
05
fe
03
f0
f6
f6
06
05
02
fa
ff
fa
07
0a
07
02
05
00
f7
f8
f9
0d
0e
08
f7
f6
fa
fd
fd
fd
fd
00
05
fb
f8
fb
0b
10
0d
df
f4
fc
d6
d7
db
04
f5
f9
0a
10
07
f8
fd
01
05
06
04
0b
07
05
09
09
08
04
02
00
06
02
00
04
01
05
fa
f9
00
fd
01
02
ff
fc
03
00
02
fc
fd
fc
f8
02
fd
fa
03
01
02
03
fd
ff
01
00
02
03
f4
ff
f7
ff
ff
f6
fa
02
e4
f0
f4
e9
d1
ec
e9
f0
ea
01
00
05
07
0b
ff
07
06
02
0a
05
fc
fd
03
02
01
0e
05
fd
f5
fb
05
0e
07
0f
0a
03
08
07
09
f6
f6
06
ef
fb
03
fd
fa
fd
07
01
06
07
01
04
ed
05
fd
fa
f6
fa
f6
f4
f2
02
17
05
00
0c
fd
01
f9
f5
01
f8
1f
ca
d8
03
ca
e4
e9
fd
14
1c
15
2b
11
12
19
04
0c
fe
fc
0e
02
fb
00
01
01
ff
0c
0a
04
01
09
fc
01
05
0a
02
f9
0a
09
f4
01
01
fe
f8
0c
0b
ec
03
0a
ec
fc
0c
ff
ff
09
fa
fc
01
fd
fe
fa
fa
ee
ff
fd
f7
ef
0b
ff
ff
fa
fe
fa
fb
d2
e8
19
fa
f5
f0
d3
c9
e9
e5
e8
09
f4
f4
fe
01
fe
09
00
fe
0a
02
01
ff
09
05
0a
0c
00
0c
06
03
fa
05
03
fb
06
03
03
09
04
f5
fb
02
ff
07
07
01
05
01
06
07
06
0e
09
08
f8
09
ff
00
00
01
07
0a
fd
0d
07
f3
01
fd
04
02
0e
1b
07
0b
02
fb
e6
fc
f6
f6
ee
00
fd
f0
00
01
05
01
01
03
00
fd
02
07
07
02
04
02
05
03
02
ff
04
ff
00
f9
fd
fe
e8
ec
fc
04
00
04
fe
fc
00
02
fa
ff
f4
f8
f4
f9
ff
f9
03
04
01
00
f0
fa
ee
db
f6
ef
08
fd
0e
04
f4
19
13
03
0a
00
f4
fd
fb
fe
06
0b
04
00
08
09
0b
fb
0a
0d
f9
06
0c
fc
f7
06
0b
06
fc
0e
02
ff
04
00
0c
fc
04
03
ed
00
02
f2
fa
fb
08
f9
fd
01
fb
fc
fe
ff
06
0f
fa
00
07
00
06
00
02
10
06
04
0b
f6
11
08
ef
01
f7
fc
e6
f1
ec
ec
d5
11
e9
f6
ee
f0
01
02
f1
05
fe
ee
04
0b
0a
07
07
0a
03
fd
01
07
0a
01
05
06
03
fc
fd
f8
04
08
02
ff
04
fc
fe
01
ff
00
04
05
02
00
03
02
fd
f5
f9
f7
fd
e4
e4
df
09
08
0a
fe
ec
fa
01
07
ff
fe
fd
f7
0a
11
08
f7
ef
f1
02
0c
0b
f1
f1
f5
00
d7
f9
f4
03
f8
fe
04
03
06
05
02
01
09
fb
06
0a
fc
03
01
05
f6
f7
f9
02
fe
00
07
0b
08
02
12
07
fd
02
05
fd
fd
ff
03
f9
03
fa
f7
fd
fb
05
0f
fe
02
13
fd
f9
fe
04
06
06
07
f9
ff
10
f9
fa
fa
eb
f4
f6
fc
08
08
05
ef
e8
c4
f0
d7
cf
fb
08
01
ff
02
ff
02
0a
08
04
ff
fc
01
ff
01
05
04
04
0a
06
08
05
f8
fb
fc
fd
00
00
f1
fb
00
fb
fe
06
f7
fe
08
f9
03
ff
09
0a
06
f8
f7
f6
05
04
f9
00
f8
f4
fb
fb
f8
fd
fd
01
f1
11
0a
ea
ee
ea
07
ff
fe
05
02
fe
fe
fa
ff
fd
04
08
07
0c
09
06
07
08
fb
00
02
06
09
0b
fc
03
09
0c
fb
f3
01
fe
fc
00
ff
02
f5
03
0c
f8
00
0b
f8
fd
09
fb
fd
08
f9
ff
05
fb
fa
fc
00
f8
f3
05
01
fa
08
09
02
03
fb
f7
e1
cc
e6
e7
db
ea
f0
a4
b9
cd
9d
b8
d4
b0
f3
05
09
01
08
0e
01
01
03
00
00
0c
08
08
06
0b
ff
fb
ff
04
fd
f8
fb
07
fb
ff
06
ff
fe
04
03
ff
02
02
03
fc
01
f9
fa
03
f2
f6
f8
f9
fd
f5
f6
ef
03
06
03
ff
0f
0f
01
fe
14
1e
d8
be
da
f0
df
ed
01
ff
fb
f5
f6
fc
f8
00
08
0d
0a
fd
0c
08
fa
07
ff
fa
fa
02
06
fe
07
0a
f8
f9
fd
fe
fe
fd
fb
fe
fe
fb
00
f5
00
fd
fd
07
ff
f7
03
02
f8
fd
f5
f4
00
03
01
05
04
f9
f2
02
00
f9
04
ff
01
05
06
04
19
16
0b
1f
1d
e9
fa
e8
f2
f9
02
01
f7
fb
07
0d
08
04
fa
ff
05
fd
03
00
fe
03
02
06
03
09
0b
0b
0e
07
0b
00
02
06
fc
fa
fb
fe
fd
fc
f7
fa
f9
fa
f7
fd
fc
00
03
f9
ef
fd
f6
f8
f7
fa
01
fc
06
00
02
02
03
02
fd
fe
02
03
fe
0d
07
01
06
0e
03
00
fa
00
01
fc
fb
fc
05
04
03
f7
f6
ff
01
00
fc
03
ff
fc
f5
f7
ff
f3
f2
f5
01
01
02
fe
00
0b
00
0d
07
fb
00
06
04
09
01
01
04
03
03
fd
f9
13
11
15
ff
00
fe
03
fa
fa
fb
01
05
f6
f8
02
f4
fd
fe
eb
e3
05
e0
e2
e9
02
13
09
fc
0e
0a
04
02
07
07
05
f8
