// conv3 weights, shape=(16,16,3,3), order=(oc,ic,kh,kw)
// 2304 int8 values, two's complement, one per line
00
f7
f9
fe
28
f2
ef
09
13
ca
fc
1c
ea
14
f5
24
24
f8
dc
e1
1c
e8
e8
1b
e7
f4
16
08
0a
0c
0f
26
f6
ff
17
1e
0d
fd
04
08
03
ef
fb
06
03
10
03
0a
10
17
06
e8
04
0e
fc
05
12
c2
d6
f8
d6
f9
49
0a
fd
df
0b
14
cf
ea
0d
f9
e1
03
22
ff
0f
fb
21
13
ed
f0
10
1b
1f
2b
f6
2f
2d
ff
f7
fa
ef
03
06
30
07
15
32
da
02
22
fe
1f
fa
19
0e
09
f0
ea
18
1b
1d
0d
23
21
22
ea
fa
1a
c7
ff
12
ef
13
36
26
15
fb
0b
fa
ec
19
f6
13
eb
06
24
e2
05
0e
fc
11
1f
05
09
08
f7
02
fb
03
fd
01
f7
f5
03
01
ff
06
fa
02
f9
01
fe
07
08
08
00
05
f4
f8
00
ff
f7
f9
fa
f4
ff
05
03
fa
f5
f6
ff
07
fb
f9
f9
fe
f5
f6
0a
fa
fd
fd
f5
fd
03
fc
ff
ff
f5
07
07
06
fb
05
f5
fd
fc
fb
03
fa
fd
fb
f5
fc
f5
04
04
09
fb
ff
01
09
09
f9
f5
f5
f9
07
02
09
06
ff
f8
09
07
03
f9
07
ff
05
03
05
f5
fa
05
fc
f6
08
ff
07
f6
03
fa
f9
fc
fa
04
fc
08
01
fe
fa
f7
fc
f6
fd
ff
ff
fb
07
06
fe
fc
07
0a
f6
fd
fe
fb
0a
ff
08
00
fd
fb
0d
0f
10
07
10
00
0c
0d
08
0d
fd
fa
00
08
f2
02
0e
f3
1a
f3
f3
00
b5
e4
07
e9
03
f3
00
f7
fb
f9
f8
02
f8
ff
20
02
08
07
0b
ff
03
03
03
0f
f9
0c
07
03
fc
07
07
05
16
df
e7
f0
a5
c3
e2
b6
df
f4
ed
f8
f9
fd
f3
f6
f9
fc
ef
f2
f7
00
01
00
eb
0c
fb
f6
e9
f7
07
02
00
05
0f
fc
0d
12
10
0b
fc
06
13
08
0a
f3
f9
03
03
03
03
ec
f9
eb
13
f7
fd
05
fe
f5
fd
03
ef
e7
d6
e8
f8
c8
e9
0f
ed
08
f1
cb
c6
df
96
b7
cd
bc
c7
ef
e9
ee
e1
c6
e5
f3
f0
01
f5
05
f9
f7
fc
f6
fa
04
f7
03
05
fe
03
f8
07
0a
02
0a
f4
fc
ff
f3
01
f6
fb
f5
00
f7
fb
04
07
01
fb
fb
05
01
07
02
07
f6
07
fa
fb
fd
fb
00
06
f8
02
f6
00
07
05
06
05
fe
02
f8
04
01
f8
07
fd
fd
fa
fb
fd
f6
f1
f7
fa
04
07
f8
ff
fc
fa
fe
fa
03
f8
00
f8
fb
07
fa
ff
08
02
f9
f9
fc
fb
04
fc
08
f9
fc
03
08
09
01
00
fb
06
f8
fb
f5
f0
ff
fb
06
07
04
02
fb
01
08
04
02
02
01
f8
05
fa
07
f8
fa
fb
04
f4
01
03
04
fe
08
0a
04
05
fa
ff
03
03
fe
f3
fc
12
07
eb
00
fb
f6
f3
22
36
1c
1a
2f
10
f9
f3
f4
20
3e
54
15
2b
46
1e
0e
13
03
0a
11
07
f6
00
15
f9
03
ec
07
15
04
f1
f6
0b
07
0c
01
0a
0a
f6
f3
fb
06
fd
f9
01
11
32
15
28
2a
0a
12
14
0d
05
17
13
03
0f
1c
fd
09
02
26
1c
09
1f
0a
f3
f4
f4
f2
11
00
ee
11
ef
e4
f1
e1
11
11
05
fd
ff
04
e6
ed
e9
14
26
25
03
12
fd
05
f3
f2
0b
1d
2f
ec
fa
f8
fa
e9
f5
12
fc
22
21
12
2a
0b
0a
f4
0b
f3
07
17
12
15
1f
17
11
11
1a
1d
01
16
12
23
09
0a
f1
ee
ed
ef
f3
ea
ed
ee
f9
28
0d
1e
1b
19
30
30
26
2e
20
19
27
1c
fe
15
36
39
41
00
f7
f6
f8
03
ff
fb
fe
01
02
f5
fe
f7
ec
fd
e9
f7
e5
fc
fa
fa
f5
fb
eb
ec
f1
f1
2d
22
2f
1a
23
22
2c
3e
34
00
e1
f6
fa
f6
fe
0b
17
09
1e
25
24
24
1f
1e
15
07
0b
15
11
1a
0d
0b
0d
00
0c
0b
ec
f8
f5
04
fe
ff
03
0c
f7
10
0a
09
16
18
0c
0f
13
07
01
fa
05
11
0d
0a
07
09
08
11
0a
24
0a
1e
16
2e
4a
2d
43
34
48
24
06
1d
28
34
34
2d
36
35
20
26
28
2b
37
2e
00
09
00
fc
f6
f9
07
ff
ff
04
f9
fe
fa
03
06
04
05
f6
fb
01
f8
04
fa
05
09
f8
0a
04
f8
09
f5
f7
f9
fe
01
fc
f5
fe
07
07
04
00
02
f7
03
f5
fb
fd
06
fe
f9
01
f6
fc
03
00
fe
06
f9
fc
0a
02
ff
05
06
fd
fb
fd
03
fe
05
f7
fa
07
01
00
01
fb
fb
02
fc
fb
01
02
ff
f7
fc
f8
03
f7
07
02
f5
07
f4
fe
f7
f5
ff
fa
07
f7
08
05
08
fc
f8
f8
0a
fc
ff
fc
01
f6
06
f5
08
fb
f9
fc
04
fd
f6
06
08
03
0c
03
ff
f9
f8
f9
fd
06
fc
ff
ff
f8
fe
09
07
07
fe
ff
04
fb
fa
07
ff
f7
07
00
04
f5
01
05
fd
f8
07
03
02
01
01
06
fd
f9
03
02
03
fe
fe
fd
01
f6
f4
02
f8
fd
01
00
05
ff
01
fd
00
02
05
f4
fa
f5
fb
06
f4
f4
04
f8
06
01
02
09
f7
08
04
f8
01
fe
fd
fd
f9
07
07
fd
f5
fd
ff
05
fe
01
01
f8
f8
f4
ff
02
fe
08
fc
f7
00
fb
fd
09
ff
07
ff
fa
06
f8
fe
00
03
f4
ff
fb
05
02
02
04
fc
fd
07
f5
f7
ff
fa
ff
08
fd
f7
fc
0a
fd
fb
06
02
f6
09
06
09
03
fc
fd
05
fd
01
f6
fb
04
ff
fa
f6
05
fd
f5
09
04
f9
f6
02
0d
23
fc
01
09
21
02
e7
42
32
16
27
1f
27
ff
0b
04
07
13
f6
f7
ec
dd
17
ff
d0
0a
12
14
fc
f4
02
13
f4
e9
01
18
24
de
ef
03
14
fd
f9
0b
07
16
d6
f0
00
17
f7
ed
f4
df
cc
12
20
0d
34
08
ed
d2
14
19
f6
13
0a
1d
04
f4
2e
46
3a
f5
04
fb
ef
0b
e5
32
34
2b
fe
ef
0f
02
07
04
ec
e8
e4
36
0f
11
28
1c
0a
19
2c
24
ed
fc
fa
02
04
f9
14
35
23
ef
05
08
eb
fb
07
0a
fc
d3
07
0f
fb
16
f5
c5
1a
0b
10
16
1f
22
0e
10
ef
e2
df
e0
27
0b
14
ef
cc
ce
1e
fc
16
2f
05
ee
2c
0e
ec
21
28
1c
0e
f7
f4
1e
f0
cc
3a
16
00
42
0d
ba
39
f6
b9
0c
02
1b
1d
fa
e5
38
0e
f0
fe
0c
15
0d
fd
08
27
0f
fe
10
07
13
0e
fa
e8
2c
18
fd
1f
0c
1e
10
f6
cc
1e
f2
d6
f4
f9
e7
07
f7
d8
09
f1
f0
fd
ea
1a
11
ec
e0
3b
0a
c5
e6
03
07
05
fd
f1
35
06
e7
1c
1a
02
21
10
16
0a
09
23
fd
fb
1a
ff
f1
ed
2f
fd
dc
0e
ff
1e
fe
f8
fe
2d
14
d0
15
16
fa
1e
f0
ed
0f
ec
ee
14
10
0d
1f
03
e5
19
f6
e1
1f
ed
02
0f
fb
e7
0c
e5
d8
14
0d
1f
fc
ef
0d
10
02
1b
33
47
3b
1a
08
02
c9
d4
e7
17
13
43
dc
cb
08
f1
fd
18
07
14
07
eb
e4
f0
0f
06
1e
16
15
11
e7
de
ff
ff
f3
16
0b
02
00
e2
dd
00
19
0c
0e
e3
d3
fc
dc
d5
0f
df
d8
ff
0b
f9
fb
e7
e1
e9
18
fb
0a
0c
0f
13
d0
e0
e1
ea
fc
ff
0a
11
0c
e3
ef
db
06
10
10
f0
f8
f5
09
04
12
f5
f8
fa
18
14
0a
e4
dc
d7
de
eb
0a
2e
40
32
d9
d4
db
e4
f2
02
04
dd
02
ea
ce
03
00
ec
11
03
03
09
d3
dd
f8
d6
e9
f4
eb
ed
eb
e0
df
00
e6
e5
00
01
00
ff
fd
f5
fd
fd
f8
00
27
16
14
19
13
ff
1e
0f
0d
0b
1a
fc
1d
1a
0e
16
0b
08
14
06
05
02
00
fe
00
01
f0
f3
f2
ed
f1
ef
f9
01
fa
04
f9
f9
ec
f9
fd
ff
01
fd
0b
09
05
03
12
32
1e
28
29
07
16
07
00
1b
13
1e
17
11
20
2f
2e
0d
07
11
f6
03
03
07
1b
25
15
fa
0c
ec
f8
02
f2
07
f8
ff
03
00
0e
0d
03
fb
17
24
04
0b
05
06
10
15
07
0a
17
00
fc
f5
e9
0f
0a
02
2c
0f
0e
2e
17
1a
27
06
f7
26
06
34
1b
18
1e
0a
1b
22
2c
36
18
48
38
1f
18
09
00
07
f6
05
f9
fd
06
f7
ff
fb
14
04
07
0b
08
16
05
0b
1a
13
23
38
00
09
20
db
ed
f4
19
0e
12
ee
f4
00
f2
07
fc
ee
ef
f1
03
08
fa
0a
1c
10
0d
fe
09
f9
f1
04
f8
09
03
22
1f
2c
03
0c
25
e2
fe
05
03
f5
0f
0b
0a
03
1e
26
21
f2
fa
06
08
00
0f
f9
01
0d
0c
02
09
fe
e6
fa
d6
e2
fd
39
3a
36
06
0d
10
f4
f4
e4
09
11
0d
04
f7
03
ff
0e
1a
f2
f0
fe
e4
dc
ef
f8
07
0d
fb
f2
ff
f6
09
0e
f1
f0
f2
06
f3
0e
0e
05
27
f7
1d
11
12
22
24
01
f9
04
09
22
09
10
f1
fa
eb
07
f4
ee
f5
00
19
f1
27
19
ea
14
25
15
1e
1e
33
20
26
3c
25
f9
0a
05
15
f4
fb
fc
0b
f2
ed
02
f9
07
f5
f1
f0
09
f8
f0
00
f7
08
f7
f8
f0
0a
f5
ed
fc
ee
23
27
2c
1b
36
21
09
2c
ff
17
0b
25
ff
0c
07
e8
fd
ee
18
06
0c
19
0a
0e
0c
fe
0d
04
f9
fb
fe
00
00
f8
01
0b
0c
15
fa
f9
f7
fd
00
02
01
1a
f8
14
17
0e
ff
04
0c
10
0f
ed
0d
01
03
f4
13
00
03
12
21
1a
11
10
1d
f8
0b
ea
15
18
19
2b
38
25
18
29
27
41
2b
28
1b
36
21
03
1d
0a
06
01
f4
f6
f5
00
f8
fd
fc
f2
fb
f7
f9
00
f7
02
fd
09
f8
08
f4
f4
ff
f8
01
f6
06
07
00
ff
07
04
f4
fc
f2
06
fc
fd
f6
f8
ff
06
f7
fd
07
07
fc
08
03
08
fe
f4
f9
01
08
f3
04
f4
04
08
fe
fa
04
fb
f7
f7
04
07
ff
f5
f4
fc
05
f8
02
f9
07
fc
fd
f5
f5
03
03
08
f5
00
fd
06
f9
01
02
03
fa
00
fa
01
f7
f5
f3
f8
fb
04
fc
f8
fe
fb
05
f5
fb
fc
01
ff
fe
06
ff
fc
02
06
06
01
f8
01
03
fc
02
08
fd
00
f1
03
06
fc
02
03
ff
05
fe
f8
f2
f2
fb
01
fb
07
fd
01
08
04
fe
09
f8
03
05
f9
f6
03
fb
f9
02
f8
0a
ff
fb
07
02
01
fa
09
fb
09
ff
04
06
f7
f9
f5
06
08
fb
f9
00
04
01
fd
f8
08
f8
f4
fa
01
02
03
f8
fc
fa
fb
f6
02
fd
f6
fa
fa
fa
f8
fd
04
f7
fe
fb
f9
fc
fa
ff
f7
01
08
07
fa
02
f5
07
f4
f5
f5
f5
00
fc
01
fe
fe
fb
f8
f6
04
f9
fc
04
fc
fc
f7
f6
04
fc
05
ff
ff
f6
ff
fc
f9
fc
ff
f6
00
06
01
09
03
f6
fa
fc
03
ff
07
00
f8
fb
f6
fc
05
ff
f4
f7
04
f7
f7
fa
0a
fd
fa
f7
05
fd
02
01
02
05
01
