// fc weights, shape=(2,144), order=(out_feat, in_feat)
// 288 int8 values, two's complement, one per line
d5
e9
df
1b
01
23
0b
e6
1d
f2
17
0a
f1
17
ff
fc
f4
f3
08
ee
0c
fe
0b
fe
0b
04
0a
fa
f4
05
f5
f6
ee
fc
f4
13
2b
21
20
09
e4
f0
0f
fb
0f
ec
fd
07
0b
25
3b
34
01
23
01
f0
0c
f3
fb
f9
ed
03
06
00
12
03
fe
f7
f5
ff
f6
f4
4f
4e
eb
f9
f2
b2
21
21
1b
30
0e
07
5a
fd
d7
3a
07
ad
42
42
22
f6
e3
0f
e2
02
04
1e
00
11
10
05
08
11
f3
01
16
11
21
ff
09
fe
fe
f6
14
ff
1f
1e
0e
f8
1a
02
fe
08
f1
17
00
f8
ee
ef
0b
f9
f9
f4
11
fe
0e
11
ef
10
fc
14
2c
f1
18
f4
f1
02
d4
01
0c
10
06
ef
e9
ea
f6
07
02
f8
10
0e
f2
f4
fc
01
fc
04
0b
fa
08
00
06
06
f8
f4
06
f0
f0
d6
00
0a
02
1a
e7
fd
fe
0f
fd
f8
e1
f8
db
e8
0a
d8
f9
fe
0f
ed
f1
f9
ec
ed
0c
ff
ed
fa
fd
f6
ec
0a
fb
13
9d
a2
07
05
30
50
fc
c8
f2
f3
ec
e7
c4
12
0b
d0
06
5c
bc
bb
c7
19
04
0f
19
15
fc
e8
e7
e2
0f
f9
ef
e6
fe
e5
f4
07
e6
09
f5
e7
e9
0a
eb
0c
ed
fa
e6
1d
cf
db
12
f4
f2
f9
eb
eb
f9
0e
04
01
f8
13
00
04
00
03
07
10
0c
03
