// fc weights, shape=(5,144), order=(out_feat, in_feat); out 0=conf logit, 1=cx, 2=cy, 3=w, 4=h
// 720 int8 values, two's complement, one per line
f0
f7
ed
f5
09
fb
e4
f1
ec
b5
12
c7
ca
d5
e1
0e
0a
31
fe
d1
d8
f2
c5
d8
f2
d3
d7
df
d4
d4
de
e0
df
d9
b3
c5
2d
ec
1c
28
04
19
37
10
23
00
f6
02
fb
14
0d
09
13
1e
02
fc
02
fc
fe
fe
fb
00
01
00
04
00
ff
fd
fd
ff
fd
fd
02
f6
05
05
08
00
0a
0c
fb
33
19
ee
08
09
f2
fc
10
eb
14
38
02
16
22
12
18
17
1a
09
fe
02
05
fb
00
06
e6
06
32
00
3d
06
f7
1b
f3
de
19
09
00
20
06
0e
fb
f0
fd
fe
27
24
27
1d
2d
1a
4d
4c
48
fd
04
ff
01
04
fc
04
ff
05
08
fa
03
0b
fd
fd
0d
04
f9
f9
f6
fd
f1
ed
ff
fd
02
00
08
fe
ff
07
0a
07
05
0b
ff
00
fc
f5
03
f8
f9
05
02
03
08
0a
ff
ff
0c
08
05
08
01
ee
08
0f
f6
07
0c
ee
0f
01
fd
00
03
fc
fd
ff
fb
fc
04
00
fc
ff
00
fe
fc
03
ff
03
e5
f0
f9
eb
f8
fa
ee
e8
fc
f5
fb
08
fb
fc
09
05
f9
03
f7
01
05
f6
05
07
00
05
01
f1
04
0f
fe
1d
15
fe
13
06
fa
fe
02
f9
f0
fa
e9
ec
fb
ff
f9
00
06
fc
09
11
05
17
10
11
0e
0d
0d
09
0a
0d
10
05
00
02
00
01
02
04
03
01
ff
00
0b
08
ff
07
05
f8
03
06
04
05
0c
06
08
fb
00
fb
1d
1c
19
05
0a
05
02
fb
fa
02
0f
fb
03
f9
f9
ff
f3
f7
05
0b
0f
0a
10
0a
06
03
03
e8
f6
03
f4
01
03
01
12
0a
01
01
02
fe
00
05
fd
fc
fc
03
fb
fd
04
fd
04
fe
01
02
e8
e3
e3
03
fe
f5
05
fc
ff
ed
f3
fc
ff
ff
01
01
fe
01
f9
02
fa
fd
fe
fd
03
fc
fc
f0
f2
07
08
12
0e
0e
1f
0b
f8
f9
f8
f9
ea
fb
f5
f2
ff
04
fd
06
15
06
0b
0c
ff
06
0f
17
f9
01
02
fc
09
0b
18
fc
01
03
04
05
04
fe
00
05
01
0b
ff
00
0c
02
f9
02
fe
03
0c
05
00
0f
ff
02
fb
04
f7
f6
f7
f6
ec
eb
fc
ef
f9
0a
f8
01
03
02
ff
ff
fa
fb
f3
f1
ea
f5
eb
f0
f5
fb
f7
0f
fa
0a
0b
fe
08
15
f7
0c
02
fd
ff
ff
fd
02
fe
02
03
03
ff
03
fd
fb
ff
fc
fc
00
1d
1b
1c
0c
11
14
0c
29
11
1b
0d
fe
09
0e
ff
00
11
fb
05
05
05
06
06
03
04
fc
03
23
27
0e
13
0b
06
13
0a
1d
f9
f7
f9
00
08
00
0f
09
fd
0e
18
04
01
1f
fd
ef
17
f3
e0
dc
f7
f0
eb
00
ec
e7
f9
02
fb
01
01
00
01
00
02
fc
01
0b
ff
00
0c
02
f9
02
fe
03
0c
05
00
0f
ff
02
fb
04
f6
f6
f7
f6
ec
eb
fc
ef
f9
0a
f8
00
03
02
00
ff
fa
fb
f3
f1
ea
f5
eb
f0
f5
fb
f7
0f
fa
0a
0a
ff
07
15
f6
0d
ff
fb
06
00
fd
00
fe
01
02
fe
00
03
fd
ff
ff
fc
00
ff
1c
1b
1c
0c
11
14
0c
29
11
1b
0d
fe
09
0e
ff
00
11
fb
05
05
05
06
06
02
04
fc
03
23
27
0e
13
0c
05
13
0a
1d
f9
f7
f9
00
08
00
0f
09
fd
0e
18
04
01
1f
fd
ef
17
f3
e0
dc
f7
f0
eb
00
ec
e7
f9
ff
fc
01
fc
00
03
ff
03
01
