// fc weights, shape=(5,144), order=(out_feat, in_feat); out 0=conf logit, 1=cx, 2=cy, 3=w, 4=h
// 720 int8 values, two's complement, one per line
fb
f4
00
00
03
13
f3
ff
14
f7
09
03
f6
09
fd
fc
f8
f7
21
0b
15
06
13
05
0e
0a
0e
f9
f7
fe
fa
f8
f4
fb
f8
08
07
fc
13
05
ee
00
fd
f3
fe
d9
d4
e1
d9
e9
eb
f0
e3
ed
00
f7
05
f9
fc
fb
f6
00
02
ff
08
01
fe
fa
fa
fe
fb
f9
f8
f5
fe
08
09
fc
09
f9
fd
10
03
fa
0d
04
04
00
0a
03
19
16
18
1d
17
25
1b
2d
28
05
ef
f8
05
f9
fb
05
f3
fa
04
06
0b
f9
f9
f1
f7
ee
fe
04
02
05
fb
01
f2
f0
fc
f6
f7
07
ff
fb
f6
f7
04
fb
fb
fa
09
fd
07
08
f8
08
fe
0a
f8
09
e9
15
fc
04
06
f4
0e
0a
05
fa
f7
f7
fd
06
03
ff
ef
0f
ec
e6
fd
18
e3
f5
10
fe
06
01
fe
00
fb
fc
03
f6
05
f9
fb
0c
f6
ea
0d
06
f0
2e
03
ed
0a
e9
de
3a
03
02
fe
00
09
f8
fa
fd
f7
f8
07
00
f7
fe
00
fc
f7
06
fe
0a
15
ff
ff
f4
01
fe
ff
fa
09
f8
0b
08
05
03
03
15
ff
03
ca
f7
17
d3
0a
19
c8
0e
1e
16
0c
04
17
0a
f6
0c
07
f2
fa
ff
05
0e
0a
fa
05
14
fb
02
fe
fa
f3
ff
08
1d
02
00
fa
00
f7
f7
fe
09
03
02
fd
0a
00
04
00
02
04
08
06
01
02
0c
0a
14
06
f6
ff
ff
0d
09
04
04
08
fc
09
05
07
08
d0
e7
eb
f7
f5
f9
0e
16
19
fc
f4
04
00
fa
06
08
fa
fd
05
0b
fd
07
03
f9
fc
f0
fa
1f
18
17
ec
d6
ef
fd
e2
f8
ff
03
06
fc
01
0a
fa
f9
f8
06
f6
fb
07
fa
09
fb
01
01
07
09
01
f7
06
f8
05
fd
05
fa
f9
fc
02
08
fb
14
0e
f9
e6
f1
e2
f5
07
f7
fb
10
00
0c
21
26
ec
f5
f4
f8
ee
f6
03
08
07
02
0b
0f
0b
0a
07
f7
19
fc
13
0c
22
fd
ff
09
f6
08
f7
02
f6
f8
f7
fc
01
f8
03
06
09
09
07
fd
ff
09
24
04
0a
f7
11
15
ef
03
09
0b
01
fc
06
05
ff
09
07
03
49
20
36
28
2a
21
31
2b
23
02
fd
f4
06
01
fd
f4
06
f6
f2
fd
eb
fb
f7
10
f0
00
0b
f1
f5
df
f8
0a
02
ba
f1
ca
07
fb
fb
ff
f9
04
fc
04
06
06
fe
06
fa
f5
ff
f8
f9
03
f7
f4
ff
0e
10
1c
10
14
09
06
fb
01
05
12
1e
f3
01
16
1c
11
23
1b
02
00
15
fe
07
fb
00
f0
0a
00
0d
00
09
0c
ff
0b
05
03
00
0b
0a
0a
f5
0b
f1
00
09
16
ee
f6
08
f1
f5
ff
fb
f9
fc
01
fd
f9
08
03
f6
02
03
00
03
ff
05
f8
17
0b
05
fe
14
14
ea
0c
05
02
02
04
fc
01
07
ff
f6
04
3f
25
3a
2a
29
20
2b
21
28
f8
06
01
08
06
03
06
ff
ff
ee
f6
e5
03
f8
10
fb
fa
0d
ed
f0
e2
fc
17
f9
c0
e6
ce
01
f7
0a
00
fa
00
fb
03
04
fd
01
06
f9
fe
fe
f9
02
00
ec
f8
03
1c
09
1f
0f
0b
0d
0f
06
01
fb
0d
13
f1
09
16
1e
19
1a
1a
ff
06
10
03
07
01
fe
f7
03
07
08
fd
08
04
fc
08
09
05
0e
05
06
07
f7
ff
f8
0c
01
15
ef
f4
05
f5
fe
02
fd
08
f7
fb
f7
f6
08
fd
f8
02
f8
01
05
fe
05
02
