// fc weights, shape=(5,144), order=(out_feat, in_feat); out 0=conf logit, 1=cx, 2=cy, 3=w, 4=h
// 720 int8 values, two's complement, one per line
f7
e5
f7
02
05
26
f6
07
29
ee
12
06
ed
13
fa
f7
ef
ee
13
ee
04
00
16
00
17
13
1a
f7
ee
ff
f5
f5
eb
f7
f0
0e
09
ef
1e
08
cf
00
f3
db
f0
d8
be
ca
da
f2
f1
15
f7
05
00
ee
0a
f1
f8
f6
eb
01
03
fe
10
01
fc
f4
f3
fd
f3
f3
e0
e3
f5
fd
fa
e8
0e
f0
f2
1f
08
ea
11
07
04
05
17
04
2c
33
33
45
36
57
4a
77
65
0c
e0
ef
0b
ef
f4
07
e3
f2
0d
11
1e
fa
fc
ea
f0
dd
02
f6
f5
f6
f7
f5
e0
d7
e9
dc
f2
16
03
f4
eb
ef
07
f4
f5
f4
11
fb
0e
11
ef
10
fc
14
07
1f
e0
24
f5
0b
fc
e7
20
15
0b
f3
ee
ef
fb
0c
07
fd
07
22
ec
e2
02
17
dc
fb
12
fe
0a
03
06
07
fa
f6
09
f2
22
fe
f4
26
03
e5
28
07
eb
0c
22
d8
0b
f6
e2
4e
0d
04
fc
ff
11
ef
f4
fb
ee
ef
0f
01
ef
fc
ff
f8
ee
0c
fd
16
25
04
f6
f1
05
ed
fe
f4
0b
f7
14
13
0b
fc
f5
20
f0
ff
be
ee
1a
ca
07
22
94
01
40
12
10
01
2f
18
ee
17
12
e5
fa
f7
fb
1c
fd
e9
12
1d
ec
06
10
f3
f8
01
01
1c
f3
ee
f1
fe
ed
ed
fe
13
08
06
fc
13
00
07
00
03
07
10
0c
03
12
20
0e
27
17
f7
fd
fc
0b
11
08
08
11
f9
13
0b
0e
0f
d8
02
0b
e9
f3
ed
fb
0d
16
fc
ec
0c
0a
fe
12
10
fb
01
12
21
f9
24
25
f9
20
05
f8
ed
10
01
e7
d2
16
06
bd
fe
fd
06
0b
f7
02
13
f4
f2
f0
0d
ec
f6
0e
f3
11
f6
03
04
11
1a
04
f1
09
ee
08
fb
08
f1
f3
00
01
0e
fb
0e
0d
f0
de
ec
dd
ed
16
f1
e2
24
fc
04
32
37
ed
f7
ed
03
f2
f1
04
0d
f9
05
15
10
0b
fd
ee
fb
39
03
1d
fe
26
07
e5
1c
ed
0e
f0
03
ed
f2
ee
f7
02
f0
05
0d
11
13
0e
fa
fe
13
2d
f7
15
f0
18
2b
e2
07
18
15
02
f8
0c
0a
fd
11
0e
05
3e
0d
28
33
35
30
40
3d
1e
05
fe
f1
03
f9
f5
ed
12
f3
e0
f2
eb
e9
cf
12
c8
ea
08
03
df
cf
e0
e7
df
95
e2
9e
10
f6
f5
fd
f3
08
f8
09
0c
0c
fc
0c
f5
eb
fe
f1
ef
07
ed
db
fb
0f
10
2b
12
1d
08
0e
f7
00
13
27
39
f4
0e
27
2e
19
35
2d
f9
f5
27
00
13
01
fb
e5
05
eb
0f
f6
00
0e
f1
0e
08
fb
01
1d
05
11
00
25
ed
00
0e
29
ec
f9
25
ee
ef
06
fb
f3
fa
03
fb
f4
11
06
ec
04
05
01
05
fe
09
f1
18
0b
07
05
2b
28
da
1a
09
04
03
09
f7
03
0f
fe
ec
07
2b
1a
37
38
2c
30
30
29
2a
f0
0f
0b
06
03
02
10
05
03
dd
e6
de
f7
cf
10
da
d9
07
fa
e2
df
dd
03
ce
9b
cd
af
03
ee
15
00
f5
01
f7
06
08
fa
01
0d
f2
fb
fd
f2
02
02
d6
e1
03
28
01
33
13
0b
13
21
0b
fe
fd
1d
24
f2
1c
23
33
2b
1d
29
f6
00
1b
0d
17
0e
f3
f1
fd
fc
06
f9
ff
fd
ed
07
0e
08
20
0f
ff
0c
fd
09
f9
15
f9
26
e8
ec
1a
f2
01
0d
ff
10
f0
f7
ef
ef
11
fb
ef
04
f0
01
0a
fb
0b
04
