// fc weights, shape=(5,144), order=(out_feat, in_feat); out 0=conf logit, 1=cx, 2=cy, 3=w, 4=h
// 720 int8 values, two's complement, one per line
f8
03
f1
ee
f9
fb
d9
e2
f8
fa
01
00
fd
08
00
fc
fe
fd
f3
d2
ca
ed
df
d4
f5
e3
d4
fe
fc
01
fd
fd
fb
fe
fe
04
2a
fa
fc
14
f5
fa
01
03
fb
f9
f6
01
00
0f
0a
16
0d
14
00
fc
02
fc
fe
fe
fb
00
01
00
04
00
ff
fd
fd
ff
fd
fd
ec
fb
f8
e9
fd
ed
fa
fa
ed
30
14
08
0d
25
10
1c
2f
16
f1
f4
f8
f3
e6
0b
04
17
24
0b
f6
f7
0b
f8
03
08
ec
03
39
50
60
14
27
1b
09
1a
2a
37
45
4f
ff
1d
10
51
48
75
50
14
1f
0e
d5
d6
23
e5
d5
fb
03
fd
01
02
f9
01
fd
03
11
02
02
0a
11
f8
17
0a
f1
04
01
fa
fc
fd
02
05
fe
fd
f5
07
ff
ec
07
fb
fb
06
02
ff
03
01
02
02
ff
fe
01
fd
f3
0f
0a
f0
13
07
ee
f5
fe
f9
06
fa
fc
0a
03
02
14
02
fd
00
04
fc
fd
ff
fb
fc
04
00
fc
ff
00
fe
fc
03
ff
04
fb
f4
f8
fa
fc
fd
f7
f5
fe
f7
02
26
fc
05
23
ff
fd
11
f3
f9
02
f1
06
05
f2
fe
fe
f1
fe
05
fc
0c
06
ff
12
0a
03
0c
03
fc
03
00
04
ff
02
ff
fb
04
fe
fc
0b
f9
02
20
09
f9
f7
12
01
01
10
0a
f8
00
fe
00
ff
01
02
04
02
02
06
06
17
13
0f
0e
07
ff
06
04
03
02
02
00
05
04
05
05
0a
02
ff
01
fa
f8
04
f3
02
fe
fb
03
03
ff
05
04
fd
00
00
0c
11
11
20
0c
08
09
03
f5
ff
ff
02
00
0a
03
08
07
02
01
03
fe
00
05
fd
fc
fc
03
fb
fd
04
fd
04
fe
01
02
fb
f1
ee
f2
f4
f6
fd
f7
fc
f4
f1
fa
ff
00
02
00
06
07
f8
ea
ef
ed
f9
f7
02
ff
f8
ef
f2
04
07
04
00
04
0b
06
fe
18
0d
00
04
05
07
f9
01
02
fe
f8
ff
03
0d
1c
17
36
04
fe
ec
fe
04
09
fd
f6
02
fb
00
03
03
04
05
02
03
09
ff
0c
ef
01
fc
ff
f4
fc
02
08
02
fc
05
02
fe
02
06
02
fa
f4
fb
08
fd
fc
f8
04
fa
02
00
fc
00
ff
fd
fb
03
fd
12
fb
fb
15
f7
0d
13
20
1e
12
fc
1e
00
01
13
01
f8
11
02
fd
fd
ff
fd
02
fe
02
03
03
ff
03
fd
fb
ff
fc
fc
00
07
16
17
05
0f
0b
09
17
06
09
05
f5
06
07
fa
02
0a
fd
04
13
0e
0c
fc
0b
04
07
1b
1f
17
03
0e
0b
07
1c
00
05
f2
e7
ee
04
f3
f4
f4
f2
ef
fc
ff
04
f3
f3
fb
ee
ec
eb
f0
02
11
ea
ec
eb
f1
f2
ee
02
fa
01
02
ff
00
fe
01
f9
ff
0c
ef
01
fc
ff
f5
fb
03
04
02
00
00
00
00
fe
fe
03
f9
f4
fc
08
fe
fb
f9
04
fa
fc
04
03
01
01
01
04
00
01
12
fc
fb
14
f8
0c
14
20
1e
12
fc
1e
ff
03
12
02
f6
12
ff
fb
05
00
fd
00
fe
01
02
fe
00
03
fd
ff
ff
fc
00
fe
06
16
17
05
0f
0b
09
17
06
09
05
f5
05
07
fa
02
0a
fc
04
13
0e
0c
fc
0b
04
08
1b
1f
17
03
0e
0b
07
1b
00
05
f2
e7
ee
04
f3
f4
f4
f2
ef
fc
00
04
f3
f3
fb
ee
ed
eb
f0
02
11
ea
ec
eb
f0
f2
ee
00
fb
01
fd
fe
01
fe
01
fe
